{
  "version": "1.0",
  "truncation": null,
  "padding": null,
  "added_tokens": [
    {
      "id": 0,
      "content": "[PAD]",
      "single_word": false,
      "lstrip": false,
      "rstrip": false,
      "normalized": false,
      "special": true
    },
    {
      "id": 1,
      "content": "[UNK]",
      "single_word": false,
      "lstrip": false,
      "rstrip": false,
      "normalized": false,
      "special": true
    },
    {
      "id": 2,
      "content": "[CLS]",
      "single_word": false,
      "lstrip": false,
      "rstrip": false,
      "normalized": false,
      "special": true
    },
    {
      "id": 3,
      "content": "[SEP]",
      "single_word": false,
      "lstrip": false,
      "rstrip": false,
      "normalized": false,
      "special": true
    },
    {
      "id": 4,
      "content": "[MASK]",
      "single_word": false,
      "lstrip": false,
      "rstrip": false,
      "normalized": false,
      "special": true
    }
  ],
  "normalizer": {
    "type": "Sequence",
    "normalizers": [
      {
        "type": "NFD"
      },
      {
        "type": "StripAccents"
      }
    ]
  },
  "pre_tokenizer": {
    "type": "ByteLevel",
    "add_prefix_space": true,
    "trim_offsets": true,
    "use_regex": true
  },
  "post_processor": {
    "type": "ByteLevel",
    "add_prefix_space": true,
    "trim_offsets": true,
    "use_regex": true
  },
  "decoder": null,
  "model": {
    "type": "BPE",
    "dropout": null,
    "unk_token": "[UNK]",
    "continuing_subword_prefix": null,
    "end_of_word_suffix": null,
    "fuse_unk": false,
    "byte_fallback": false,
    "ignore_merges": false,
    "vocab": {
      "[PAD]": 0,
      "[UNK]": 1,
      "[CLS]": 2,
      "[SEP]": 3,
      "[MASK]": 4,
      "!": 5,
      "\"": 6,
      "#": 7,
      "$": 8,
      "%": 9,
      "&": 10,
      "'": 11,
      "(": 12,
      ")": 13,
      "*": 14,
      "+": 15,
      ",": 16,
      "-": 17,
      ".": 18,
      "/": 19,
      "0": 20,
      "1": 21,
      "2": 22,
      "3": 23,
      "4": 24,
      "5": 25,
      "6": 26,
      "7": 27,
      "8": 28,
      "9": 29,
      ":": 30,
      ";": 31,
      "<": 32,
      "=": 33,
      ">": 34,
      "?": 35,
      "@": 36,
      "A": 37,
      "B": 38,
      "C": 39,
      "D": 40,
      "E": 41,
      "F": 42,
      "G": 43,
      "H": 44,
      "I": 45,
      "J": 46,
      "K": 47,
      "L": 48,
      "M": 49,
      "N": 50,
      "O": 51,
      "P": 52,
      "Q": 53,
      "R": 54,
      "S": 55,
      "T": 56,
      "U": 57,
      "V": 58,
      "W": 59,
      "X": 60,
      "Y": 61,
      "Z": 62,
      "[": 63,
      "\\": 64,
      "]": 65,
      "^": 66,
      "_": 67,
      "`": 68,
      "a": 69,
      "b": 70,
      "c": 71,
      "d": 72,
      "e": 73,
      "f": 74,
      "g": 75,
      "h": 76,
      "i": 77,
      "j": 78,
      "k": 79,
      "l": 80,
      "m": 81,
      "n": 82,
      "o": 83,
      "p": 84,
      "q": 85,
      "r": 86,
      "s": 87,
      "t": 88,
      "u": 89,
      "v": 90,
      "w": 91,
      "x": 92,
      "y": 93,
      "z": 94,
      "{": 95,
      "|": 96,
      "}": 97,
      "~": 98,
      "¡": 99,
      "¢": 100,
      "£": 101,
      "¤": 102,
      "¥": 103,
      "¦": 104,
      "§": 105,
      "¨": 106,
      "©": 107,
      "ª": 108,
      "«": 109,
      "¬": 110,
      "®": 111,
      "¯": 112,
      "°": 113,
      "±": 114,
      "²": 115,
      "³": 116,
      "´": 117,
      "µ": 118,
      "¶": 119,
      "·": 120,
      "¸": 121,
      "¹": 122,
      "º": 123,
      "»": 124,
      "¼": 125,
      "½": 126,
      "¾": 127,
      "¿": 128,
      "Â": 129,
      "Ã": 130,
      "Ä": 131,
      "Å": 132,
      "É": 133,
      "Ê": 134,
      "Ë": 135,
      "Î": 136,
      "Ï": 137,
      "Ð": 138,
      "Ñ": 139,
      "à": 140,
      "á": 141,
      "â": 142,
      "ã": 143,
      "ä": 144,
      "å": 145,
      "æ": 146,
      "ç": 147,
      "è": 148,
      "é": 149,
      "ï": 150,
      "ð": 151,
      "ĉ": 152,
      "Ċ": 153,
      "č": 154,
      "Ġ": 155,
      "Ģ": 156,
      "ģ": 157,
      "Ĥ": 158,
      "ĥ": 159,
      "Ħ": 160,
      "ħ": 161,
      "Ĩ": 162,
      "ĩ": 163,
      "Ī": 164,
      "ī": 165,
      "Ĭ": 166,
      "ĭ": 167,
      "Į": 168,
      "į": 169,
      "İ": 170,
      "ı": 171,
      "Ĳ": 172,
      "ĳ": 173,
      "Ĵ": 174,
      "ĵ": 175,
      "Ķ": 176,
      "ķ": 177,
      "ĸ": 178,
      "Ĺ": 179,
      "ĺ": 180,
      "Ļ": 181,
      "ļ": 182,
      "Ľ": 183,
      "ľ": 184,
      "Ŀ": 185,
      "ŀ": 186,
      "Ł": 187,
      "ł": 188,
      "Ń": 189,
      "ĠĠ": 190,
      "ĠĠĠĠ": 191,
      "čĊ": 192,
      "ĠĠĠ": 193,
      "ĠĠĠĠĠĠĠ": 194,
      "==": 195,
      "in": 196,
      "on": 197,
      "at": 198,
      "re": 199,
      "se": 200,
      "or": 201,
      "de": 202,
      "Ġ=": 203,
      "st": 204,
      "er": 205,
      "en": 206,
      "ĠĠĠĠĠĠĠĠĠĠĠ": 207,
      "Ġt": 208,
      "al": 209,
      "ar": 210,
      "Ġi": 211,
      "an": 212,
      "le": 213,
      "ion": 214,
      "Ġ\"": 215,
      "Ġc": 216,
      "Ġf": 217,
      "ut": 218,
      "me": 219,
      "Ġre": 220,
      "pe": 221,
      "Ġin": 222,
      "he": 223,
      "ur": 224,
      "ct": 225,
      "Ġ==": 226,
      "it": 227,
      "Ġn": 228,
      "ĠS": 229,
      "ce": 230,
      "ro": 231,
      "Ġp": 232,
      "Ġde": 233,
      "ge": 234,
      "):": 235,
      "===": 236,
      "ĠčĊ": 237,
      "Ġ=====": 238,
      "Ġs": 239,
      "di": 240,
      "lf": 241,
      "self": 242,
      "as": 243,
      "el": 244,
      "Ġo": 245,
      "ch": 246,
      "Ġif": 247,
      "ue": 248,
      "urn": 249,
      "turn": 250,
      "id": 251,
      "lo": 252,
      "\"\"": 253,
      "Ġm": 254,
      "ra": 255,
      "one": 256,
      "Ġb": 257,
      "ate": 258,
      "ig": 259,
      "ode": 260,
      "Ġreturn": 261,
      "Ġdef": 262,
      "ing": 263,
      "ĠĠĠĠĠĠĠĠĠĠĠĠĠĠĠ": 264,
      "ype": 265,
      "Ġa": 266,
      "None": 267,
      "ame": 268,
      "un": 269,
      "ex": 270,
      "str": 271,
      "iz": 272,
      "ent": 273,
      "ed": 274,
      "Ġself": 275,
      "um": 276,
      "Ġl": 277,
      "Ġfor": 278,
      "ot": 279,
      "put": 280,
      "pt": 281,
      "val": 282,
      "ĠNone": 283,
      "()": 284,
      "ol": 285,
      "AT": 286,
      "Ġ(": 287,
      "ul": 288,
      "Ġthe": 289,
      "LE": 290,
      "OR": 291,
      "ck": 292,
      "Ġd": 293,
      "Ġ\"\"\"": 294,
      "Ġ-": 295,
      "AR": 296,
      "\",": 297,
      "AM": 298,
      "Ġw": 299,
      "type": 300,
      "EP": 301,
      "Ġis": 302,
      "PLE": 303,
      "ATOR": 304,
      "ĠSAM": 305,
      "EPAR": 306,
      "EPARATOR": 307,
      "ĠSAMPLE": 308,
      "Ġ#": 309,
      "ĠSEPARATOR": 310,
      "ma": 311,
      "ad": 312,
      "Ġ)": 313,
      "con": 314,
      "es": 315,
      "up": 316,
      "and": 317,
      "ens": 318,
      "mp": 319,
      "il": 320,
      "ize": 321,
      "co": 322,
      "ĠĠĠĠĠĠĠĠ": 323,
      "ist": 324,
      "is": 325,
      "Ġ_": 326,
      "Ġ'": 327,
      "arg": 328,
      "ha": 329,
      "ation": 330,
      "la": 331,
      "Ġ1": 332,
      "name": 333,
      "Ġto": 334,
      "get": 335,
      "ri": 336,
      "ke": 337,
      "ata": 338,
      "ult": 339,
      "ĠT": 340,
      "value": 341,
      "ter": 342,
      "th": 343,
      "Ġ[": 344,
      "ext": 345,
      "ss": 346,
      "od": 347,
      "ensor": 348,
      "fi": 349,
      "Ġstr": 350,
      "Ġ*": 351,
      "Ġel": 352,
      "to": 353,
      "Ġcon": 354,
      "hape": 355,
      "size": 356,
      "Ġof": 357,
      "\":": 358,
      "\")": 359,
      "am": 360,
      "ĠA": 361,
      "fig": 362,
      "orm": 363,
      "odel": 364,
      "ht": 365,
      "orch": 366,
      "vi": 367,
      "Ġ+": 368,
      "ction": 369,
      "ab": 370,
      "Ġnot": 371,
      "ath": 372,
      "las": 373,
      "qu": 374,
      "int": 375,
      "res": 376,
      "end": 377,
      "em": 378,
      "po": 379,
      "args": 380,
      "Ġr": 381,
      "(\"": 382,
      "Ġg": 383,
      "Ġ{": 384,
      "],": 385,
      "ption": 386,
      "ver": 387,
      "Ġdi": 388,
      "__": 389,
      "Ġh": 390,
      "),": 391,
      "Ġse": 392,
      "att": 393,
      "pp": 394,
      "Ġ->": 395,
      "lass": 396,
      "key": 397,
      "par": 398,
      "Ġ0": 399,
      "pro": 400,
      "utput": 401,
      "Ġx": 402,
      "ĠF": 403,
      "ight": 404,
      "ic": 405,
      "Ġst": 406,
      "eld": 407,
      "))": 408,
      "den": 409,
      "Ġand": 410,
      "sc": 411,
      "ule": 412,
      "Ġelse": 413,
      "per": 414,
      "Ġor": 415,
      "use": 416,
      "et": 417,
      "ror": 418,
      "rue": 419,
      "',": 420,
      "ti": 421,
      "ve": 422,
      "ance": 423,
      "atch": 424,
      "age": 425,
      "Ġint": 426,
      "ith": 427,
      "Ġtorch": 428,
      "shape": 429,
      "all": 430,
      "ort": 431,
      "odule": 432,
      "able": 433,
      "der": 434,
      "Ġe": 435,
      "alse": 436,
      "loat": 437,
      "--": 438,
      "ise": 439,
      "ase": 440,
      "li": 441,
      "ect": 442,
      "om": 443,
      "=\"": 444,
      "Ġres": 445,
      "ax": 446,
      "ask": 447,
      "dim": 448,
      "ĠR": 449,
      "Ġclass": 450,
      "path": 451,
      "ield": 452,
      "ine": 453,
      "ran": 454,
      "nt": 455,
      "Ġ|": 456,
      "set": 457,
      "\"]": 458,
      "Con": 459,
      "ment": 460,
      "text": 461,
      "[\"": 462,
      "Ġ2": 463,
      "stance": 464,
      "yer": 465,
      "add": 466,
      "app": 467,
      "che": 468,
      "op": 469,
      "Ġex": 470,
      "Ġpar": 471,
      "ault": 472,
      "pre": 473,
      "code": 474,
      "config": 475,
      "ew": 476,
      "Ġme": 477,
      "Ġk": 478,
      "ack": 479,
      "idden": 480,
      "rom": 481,
      "rror": 482,
      "us": 483,
      "ĠĠĠĠĠĠĠĠĠĠĠĠĠĠĠĠĠĠĠ": 484,
      "Ġv": 485,
      "data": 486,
      "if": 487,
      "])": 488,
      "Error": 489,
      "._": 490,
      "ile": 491,
      "Ġvalue": 492,
      "ub": 493,
      "':": 494,
      "ta": 495,
      "eight": 496,
      "im": 497,
      "dtype": 498,
      "Ġra": 499,
      "mage": 500,
      "Ġlist": 501,
      "\"\"\"": 502,
      "init": 503,
      "te": 504,
      "Ġth": 505,
      "red": 506,
      "Ġ:": 507,
      "bo": 508,
      "ĠI": 509,
      "ject": 510,
      "que": 511,
      "Ġ`": 512,
      "Ġinput": 513,
      "Ġbo": 514,
      "sp": 515,
      "dex": 516,
      "Ġpro": 517,
      "ep": 518,
      "Ġbe": 519,
      "form": 520,
      "instance": 521,
      "Ġnum": 522,
      "dict": 523,
      "state": 524,
      "Ġname": 525,
      "Ġdata": 526,
      "act": 527,
      ").": 528,
      "nel": 529,
      "list": 530,
      "ow": 531,
      "Ġlen": 532,
      "ser": 533,
      "model": 534,
      "art": 535,
      "wargs": 536,
      "vice": 537,
      "Ġy": 538,
      "Tensor": 539,
      "input": 540,
      "len": 541,
      "ff": 542,
      "ĠP": 543,
      "Ġuse": 544,
      "Ġraise": 545,
      "ĠC": 546,
      "time": 547,
      "Ġwith": 548,
      "num": 549,
      "00": 550,
      "ĠD": 551,
      "Ġnp": 552,
      "lock": 553,
      "out": 554,
      "mple": 555,
      "unt": 556,
      "output": 557,
      "ces": 558,
      "append": 559,
      "Ġas": 560,
      "Ġco": 561,
      "Ġ/": 562,
      "param": 563,
      "('": 564,
      "ĠO": 565,
      "roup": 566,
      "Ġmodel": 567,
      "gra": 568,
      "ange": 569,
      "ant": 570,
      "date": 571,
      "ĠĠĠĠĠ": 572,
      "ĠĠĠĠĠĠĠĠĠĠĠĠĠĠĠĠ": 573,
      "ator": 574,
      "Ġisinstance": 575,
      "Ġoutput": 576,
      "ip": 577,
      "ard": 578,
      "Ġlo": 579,
      "ry": 580,
      "ition": 581,
      "ken": 582,
      "ast": 583,
      "Ġmax": 584,
      "ĠM": 585,
      "fo": 586,
      "tensor": 587,
      "max": 588,
      "scri": 589,
      "Ġdtype": 590,
      "Ġpre": 591,
      "file": 592,
      "ding": 593,
      "os": 594,
      "weight": 595,
      "Ġ>": 596,
      "gs": 597,
      "ure": 598,
      "Ġhe": 599,
      "cal": 600,
      "True": 601,
      "ory": 602,
      "ob": 603,
      "module": 604,
      "layer": 605,
      "..": 606,
      "unction": 607,
      "Ġkey": 608,
      "Val": 609,
      "ly": 610,
      "cess": 611,
      "uple": 612,
      "fe": 613,
      ".\"\"\"": 614,
      "ĠFalse": 615,
      "kwargs": 616,
      "ray": 617,
      "Ġelif": 618,
      "cl": 619,
      "attr": 620,
      "ps": 621,
      "ĠTrue": 622,
      "Ġch": 623,
      "Ġtype": 624,
      "')": 625,
      "Ġresult": 626,
      "rent": 627,
      "['": 628,
      "ag": 629,
      "pon": 630,
      "low": 631,
      "Ġfrom": 632,
      "ĠRe": 633,
      "ptional": 634,
      "rans": 635,
      "Ġen": 636,
      "Ġdefault": 637,
      "Ġ<": 638,
      "ias": 639,
      "ĠThe": 640,
      "iv": 641,
      "False": 642,
      "quest": 643,
      "Ġan": 644,
      "bed": 645,
      "oc": 646,
      "ive": 647,
      "ers": 648,
      "ust": 649,
      "Ġout": 650,
      "torch": 651,
      "Ġ**": 652,
      "float": 653,
      "__(": 654,
      "var": 655,
      "Ġhidden": 656,
      "ated": 657,
      "ument": 658,
      "ery": 659,
      "pi": 660,
      "ide": 661,
      "Ex": 662,
      "our": 663,
      "scription": 664,
      "lit": 665,
      "col": 666,
      "norm": 667,
      "node": 668,
      "():": 669,
      "url": 670,
      "tra": 671,
      "ĠAn": 672,
      "ind": 673,
      "Ġj": 674,
      "thod": 675,
      "Ġwh": 676,
      "Ġrange": 677,
      "ity": 678,
      "']": 679,
      "Ġ}": 680,
      "Ġshape": 681,
      "Ġ3": 682,
      "Ġ[]": 683,
      "tent": 684,
      "valid": 685,
      "eg": 686,
      "Ġdict": 687,
      "ponse": 688,
      "pec": 689,
      "states": 690,
      "In": 691,
      "ĠL": 692,
      "Ġsup": 693,
      "Ġ__": 694,
      "aliz": 695,
      "arget": 696,
      "Ġnew": 697,
      "min": 698,
      "().": 699,
      "count": 700,
      "lace": 701,
      "gth": 702,
      "array": 703,
      "row": 704,
      "sa": 705,
      "Ġfloat": 706,
      "Ġtensor": 707,
      "sion": 708,
      "ĠN": 709,
      "Value": 710,
      "ĠB": 711,
      "Ġbool": 712,
      "Ġit": 713,
      "Ġtf": 714,
      "]:": 715,
      "index": 716,
      "Ġconfig": 717,
      "ssage": 718,
      "ph": 719,
      "embed": 720,
      "ber": 721,
      "port": 722,
      "ime": 723,
      "annel": 724,
      "fix": 725,
      "ord": 726,
      "lab": 727,
      "ay": 728,
      "Ġqu": 729,
      "ameter": 730,
      "ary": 731,
      "und": 732,
      "com": 733,
      "Ġdim": 734,
      "Ġax": 735,
      "ener": 736,
      "Ġ+=": 737,
      "Ġal": 738,
      "box": 739,
      "fault": 740,
      "est": 741,
      "([": 742,
      "32": 743,
      "mo": 744,
      "ĠField": 745,
      "item": 746,
      "ir": 747,
      "ayer": 748,
      "point": 749,
      "Ġget": 750,
      "Ġob": 751,
      "ho": 752,
      "pos": 753,
      "Ġ%": 754,
      "Ġimage": 755,
      "ign": 756,
      "Ġon": 757,
      "Ġset": 758,
      "fil": 759,
      "class": 760,
      "group": 761,
      "hidden": 762,
      "idth": 763,
      "mask": 764,
      "Ġby": 765,
      "place": 766,
      "ON": 767,
      "nn": 768,
      "[:": 769,
      "Ġ):": 770,
      "ok": 771,
      "error": 772,
      "py": 773,
      "Ġ@": 774,
      "ded": 775,
      "ren": 776,
      "ft": 777,
      "image": 778,
      "start": 779,
      "vent": 780,
      "IN": 781,
      "ac": 782,
      "St": 783,
      "yn": 784,
      "Config": 785,
      "Ġfile": 786,
      "ĠReturn": 787,
      "Ġpadd": 788,
      "line": 789,
      "reate": 790,
      "ization": 791,
      "ader": 792,
      "umn": 793,
      "ids": 794,
      "Ġnode": 795,
      "ĠValue": 796,
      "Re": 797,
      "Ġun": 798,
      "scal": 799,
      "ER": 800,
      "Type": 801,
      "Ġthat": 802,
      "----": 803,
      "ource": 804,
      "Ġdescription": 805,
      "dir": 806,
      "stat": 807,
      "annels": 808,
      "mpl": 809,
      "coder": 810,
      "!=": 811,
      "format": 812,
      "batch": 813,
      "back": 814,
      "field": 815,
      "ca": 816,
      "ĠValueError": 817,
      "Ġcol": 818,
      "tri": 819,
      "ock": 820,
      "Ġ!=": 821,
      "params": 822,
      "block": 823,
      "ĠU": 824,
      "token": 825,
      "ild": 826,
      "da": 827,
      "unc": 828,
      "Ġcur": 829,
      "log": 830,
      "heck": 831,
      "Ġmin": 832,
      "ĠAr": 833,
      "ernel": 834,
      "vert": 835,
      "Ġle": 836,
      "not": 837,
      "Ġtuple": 838,
      "ec": 839,
      "ĠAny": 840,
      "``": 841,
      "uct": 842,
      "own": 843,
      "device": 844,
      "idx": 845,
      "Ġcom": 846,
      "split": 847,
      "ĠG": 848,
      "Ġtext": 849,
      "version": 850,
      "comp": 851,
      "Ġmodule": 852,
      "Par": 853,
      "info": 854,
      "ĠReturns": 855,
      "ĠOptional": 856,
      "arch": 857,
      "oin": 858,
      "Ġop": 859,
      "ib": 860,
      "].": 861,
      "mat": 862,
      "ention": 863,
      "andom": 864,
      "mport": 865,
      "by": 866,
      "np": 867,
      "Ġpath": 868,
      "ssion": 869,
      "Ġsuper": 870,
      "default": 871,
      "dices": 872,
      "attention": 873,
      "tern": 874,
      "with": 875,
      "Ġ4": 876,
      "qui": 877,
      "update": 878,
      "sh": 879,
      "Ġsa": 880,
      "values": 881,
      "inal": 882,
      "Ġnn": 883,
      "length": 884,
      "sum": 885,
      "='": 886,
      "quen": 887,
      "cur": 888,
      "Ġtime": 889,
      "ml": 890,
      "ree": 891,
      "fn": 892,
      "iter": 893,
      "Ġaxis": 894,
      "sub": 895,
      "dd": 896,
      "cept": 897,
      "Ġfield": 898,
      "Ġhas": 899,
      "son": 900,
      "ams": 901,
      "pect": 902,
      "ĠArgs": 903,
      "ures": 904,
      "ifi": 905,
      "argument": 906,
      "result": 907,
      "ork": 908,
      "user": 909,
      "mb": 910,
      "ward": 911,
      "Ġos": 912,
      "method": 913,
      "ill": 914,
      "ute": 915,
      "channels": 916,
      "ll": 917,
      "ms": 918,
      "bias": 919,
      "ial": 920,
      "cond": 921,
      "extra": 922,
      "ĠH": 923,
      "ore": 924,
      "for": 925,
      "Ġall": 926,
      "Ġdevice": 927,
      "kens": 928,
      "Ġline": 929,
      "pa": 930,
      "Ġtry": 931,
      "Model": 932,
      "zer": 933,
      "bu": 934,
      "dims": 935,
      "join": 936,
      "tain": 937,
      "attn": 938,
      "ĠW": 939,
      "its": 940,
      "raw": 941,
      "ST": 942,
      "Ġro": 943,
      "64": 944,
      "head": 945,
      "ail": 946,
      "Ġ]": 947,
      "parse": 948,
      "Ġstart": 949,
      "ĠE": 950,
      "izer": 951,
      "ies": 952,
      "fact": 953,
      "train": 954,
      "Ġ{}": 955,
      "unk": 956,
      "Ġfunction": 957,
      "trans": 958,
      "ision": 959,
      "rame": 960,
      "io": 961,
      "ception": 962,
      "Ġare": 963,
      "ther": 964,
      "tes": 965,
      "...": 966,
      "(),": 967,
      "feat": 968,
      "lin": 969,
      "Ġsize": 970,
      "base": 971,
      "Ġstate": 972,
      "ameters": 973,
      "Ġindex": 974,
      "((": 975,
      "sco": 976,
      "Ġscal": 977,
      "scale": 978,
      "Ġlayer": 979,
      "Ġid": 980,
      "Ġargs": 981,
      "Ġbase": 982,
      "ations": 983,
      "Ġinit": 984,
      "run": 985,
      "Ġblock": 986,
      "Ġexcept": 987,
      "lient": 988,
      "test": 989,
      "Ġtra": 990,
      "gan": 991,
      "ach": 992,
      "uth": 993,
      "embedding": 994,
      "Ġpo": 995,
      "}.": 996,
      "Ġtarget": 997,
      "ull": 998,
      "Ġgra": 999,
      "Module": 1000,
      "lic": 1001,
      "ts": 1002,
      "ron": 1003,
      "map": 1004,
      "lat": 1005,
      "Ġsy": 1006,
      "lob": 1007,
      "Ġfil": 1008,
      "message": 1009,
      "Ġvar": 1010,
      "Ġuser": 1011,
      "Ġweight": 1012,
      "Ġend": 1013,
      "Ġbox": 1014,
      "Base": 1015,
      "from": 1016,
      "grad": 1017,
      "Ġmask": 1018,
      "check": 1019,
      "mode": 1020,
      "sample": 1021,
      "Ġcheck": 1022,
      "ses": 1023,
      "ganization": 1024,
      "items": 1025,
      "}\"": 1026,
      "ug": 1027,
      "ync": 1028,
      "quence": 1029,
      "10": 1030,
      "rect": 1031,
      "inputs": 1032,
      "lay": 1033,
      "Ġgroup": 1034,
      "width": 1035,
      "Ġbu": 1036,
      "16": 1037,
      "lement": 1038,
      "Ġbatch": 1039,
      "())": 1040,
      "adata": 1041,
      "]]": 1042,
      "Ġstring": 1043,
      "exp": 1044,
      "ner": 1045,
      "itle": 1046,
      "context": 1047,
      "Ġte": 1048,
      "\"),": 1049,
      ".__": 1050,
      "[-": 1051,
      "string": 1052,
      "},": 1053,
      "Ġthis": 1054,
      "iable": 1055,
      "Ġsub": 1056,
      "Ġimport": 1057,
      "ĠĠĠĠĠĠĠĠĠĠĠĠĠĠĠĠĠĠĠĠĠĠĠ": 1058,
      "Ġtoken": 1059,
      "().__": 1060,
      "ict": 1061,
      "els": 1062,
      "proj": 1063,
      "Ġcomp": 1064,
      "lper": 1065,
      "Ġma": 1066,
      "Ġrequest": 1067,
      "nd": 1068,
      "empt": 1069,
      "function": 1070,
      "Pro": 1071,
      "no": 1072,
      "sent": 1073,
      "read": 1074,
      "ctor": 1075,
      "tokens": 1076,
      "new": 1077,
      "DE": 1078,
      "rop": 1079,
      "ution": 1080,
      "obj": 1081,
      "otal": 1082,
      "eps": 1083,
      "ite": 1084,
      "\"{": 1085,
      "ace": 1086,
      "Ġrun": 1087,
      "ix": 1088,
      "replace": 1089,
      "alle": 1090,
      "ty": 1091,
      "ctions": 1092,
      "lp": 1093,
      "Ġobject": 1094,
      "cls": 1095,
      "Ġcurrent": 1096,
      "his": 1097,
      "axis": 1098,
      "Ġitem": 1099,
      "Res": 1100,
      "view": 1101,
      "ptions": 1102,
      "ang": 1103,
      "ne": 1104,
      "Ġvalues": 1105,
      "spec": 1106,
      "Ġq": 1107,
      "Ġapp": 1108,
      "Ġspec": 1109,
      "conv": 1110,
      "Ġsh": 1111,
      "ename": 1112,
      "Ġcan": 1113,
      "ual": 1114,
      "content": 1115,
      "Ġpos": 1116,
      "htt": 1117,
      "Ġper": 1118,
      "sy": 1119,
      "vy": 1120,
      "Ġorig": 1121,
      "ĠTensor": 1122,
      "Ġcl": 1123,
      "Ġmessage": 1124,
      "cs": 1125,
      "tin": 1126,
      "Ġerror": 1127,
      "Ġquery": 1128,
      "wa": 1129,
      "ĠEx": 1130,
      "keys": 1131,
      "ĠIn": 1132,
      "RE": 1133,
      "mplate": 1134,
      "Ġpaddle": 1135,
      "call": 1136,
      "][": 1137,
      "ension": 1138,
      "graph": 1139,
      ".\"": 1140,
      "process": 1141,
      "Ġparser": 1142,
      "vel": 1143,
      "Ġivy": 1144,
      "load": 1145,
      "vide": 1146,
      "Data": 1147,
      "Ġsco": 1148,
      "ils": 1149,
      "={": 1150,
      "tadata": 1151,
      "12": 1152,
      "target": 1153,
      "attern": 1154,
      "rence": 1155,
      "\"],": 1156,
      "atus": 1157,
      "thon": 1158,
      "random": 1159,
      "uld": 1160,
      "_(": 1161,
      "Ġnorm": 1162,
      "Ġ{\"": 1163,
      "Ġused": 1164,
      "bs": 1165,
      "lable": 1166,
      "**": 1167,
      "Ġ//": 1168,
      "Qu": 1169,
      "vider": 1170,
      "rank": 1171,
      "ak": 1172,
      "ped": 1173,
      "eat": 1174,
      "names": 1175,
      "prefix": 1176,
      "func": 1177,
      "Ġ5": 1178,
      "Ġnumber": 1179,
      "Ġkwargs": 1180,
      "old": 1181,
      "reg": 1182,
      "Ġsp": 1183,
      "Ġact": 1184,
      "indices": 1185,
      "work": 1186,
      "ateg": 1187,
      "Ġadd": 1188,
      "Ġstride": 1189,
      "TE": 1190,
      "inter": 1191,
      "Ġkernel": 1192,
      "Ġlog": 1193,
      "we": 1194,
      "Ġmust": 1195,
      "ĠCon": 1196,
      "Ġlab": 1197,
      "range": 1198,
      "sed": 1199,
      "lect": 1200,
      "\"):": 1201,
      "Ġret": 1202,
      "Ġcontain": 1203,
      "Ġyield": 1204,
      "Ġdo": 1205,
      "cation": 1206,
      "reshape": 1207,
      "Ġgener": 1208,
      "object": 1209,
      "features": 1210,
      "AL": 1211,
      "comm": 1212,
      "ĠThis": 1213,
      "keep": 1214,
      "pected": 1215,
      "uce": 1216,
      "Ġcode": 1217,
      "ĠIf": 1218,
      "layers": 1219,
      "main": 1220,
      "query": 1221,
      "ptim": 1222,
      "//": 1223,
      "api": 1224,
      "tr": 1225,
      "Ġac": 1226,
      "Ġdate": 1227,
      "clu": 1228,
      "[:,": 1229,
      "Ġcontext": 1230,
      "height": 1231,
      "here": 1232,
      "Ġca": 1233,
      "table": 1234,
      ")]": 1235,
      "return": 1236,
      "Ġpa": 1237,
      "cat": 1238,
      "Ġresponse": 1239,
      "Norm": 1240,
      "=[": 1241,
      "Ġvalid": 1242,
      "const": 1243,
      "sche": 1244,
      "Ġinputs": 1245,
      "Ġwhile": 1246,
      "Ġ>>": 1247,
      "lobal": 1248,
      "cache": 1249,
      "ializ": 1250,
      "json": 1251,
      "av": 1252,
      "Ġpadding": 1253,
      "Ġtest": 1254,
      "ark": 1255,
      "proper": 1256,
      "Ġtask": 1257,
      "Ġtrans": 1258,
      "pth": 1259,
      "filter": 1260,
      "column": 1261,
      "Ġinter": 1262,
      "Ġwill": 1263,
      "alize": 1264,
      "ank": 1265,
      "env": 1266,
      "ference": 1267,
      "Ġcontent": 1268,
      "TI": 1269,
      "doc": 1270,
      "Ar": 1271,
      "Ġ``": 1272,
      "Ġscale": 1273,
      "Ġ(`": 1274,
      "EN": 1275,
      "mean": 1276,
      "Ġbias": 1277,
      "request": 1278,
      "rc": 1279,
      "ĠV": 1280,
      "Ġmat": 1281,
      "so": 1282,
      "ref": 1283,
      "weights": 1284,
      "boxes": 1285,
      "tx": 1286,
      "indow": 1287,
      "empty": 1288,
      "title": 1289,
      "ĠSe": 1290,
      "PI": 1291,
      "task": 1292,
      "ors": 1293,
      "Float": 1294,
      "De": 1295,
      "Ġrequi": 1296,
      "Ġoper": 1297,
      "tuple": 1298,
      "Ġparams": 1299,
      "The": 1300,
      "Ġ...": 1301,
      "allel": 1302,
      "zeros": 1303,
      "cre": 1304,
      "Ġarg": 1305,
      "Ġcontin": 1306,
      "gram": 1307,
      "off": 1308,
      "://": 1309,
      "cor": 1310,
      "Ġ),": 1311,
      "ments": 1312,
      "ative": 1313,
      "Ġsample": 1314,
      "arr": 1315,
      "Ġmode": 1316,
      "Ġ>>>": 1317,
      "dent": 1318,
      "static": 1319,
      "Se": 1320,
      "Ġdraw": 1321,
      "ld": 1322,
      "Ġseri": 1323,
      ")):": 1324,
      "down": 1325,
      "Ġpad": 1326,
      "ream": 1327,
      "Ġformat": 1328,
      "Ġconvert": 1329,
      "Ġeach": 1330,
      "Ġrow": 1331,
      "Ġfeat": 1332,
      "Ġwidth": 1333,
      "strip": 1334,
      "mem": 1335,
      "ID": 1336,
      "Ġno": 1337,
      "lip": 1338,
      "Ġmethod": 1339,
      "swith": 1340,
      "match": 1341,
      "List": 1342,
      "Ġcontinue": 1343,
      "event": 1344,
      "Ġobj": 1345,
      "dio": 1346,
      "olic": 1347,
      "})": 1348,
      "Ġ('": 1349,
      "resh": 1350,
      "ĠX": 1351,
      "create": 1352,
      "(-": 1353,
      "helper": 1354,
      "ible": 1355,
      "quant": 1356,
      "any": 1357,
      "viron": 1358,
      "wise": 1359,
      "hould": 1360,
      "Field": 1361,
      "lasses": 1362,
      "pop": 1363,
      "pen": 1364,
      "Ġmock": 1365,
      "project": 1366,
      "ning": 1367,
      "ound": 1368,
      "eta": 1369,
      "ting": 1370,
      "ans": 1371,
      "copy": 1372,
      "ivation": 1373,
      "rix": 1374,
      "ches": 1375,
      "Node": 1376,
      "bin": 1377,
      "chema": 1378,
      "uration": 1379,
      "Ġmatch": 1380,
      "FloatTensor": 1381,
      "pu": 1382,
      "Ġextra": 1383,
      "Ġwe": 1384,
      "kernel": 1385,
      "iven": 1386,
      "Ġback": 1387,
      "Ġim": 1388,
      "stride": 1389,
      "outputs": 1390,
      "but": 1391,
      "ress": 1392,
      "denti": 1393,
      "net": 1394,
      "Ġcall": 1395,
      "Ġcount": 1396,
      "Ġquant": 1397,
      "|\\": 1398,
      "Ġversion": 1399,
      "Ġ[\"": 1400,
      "ze": 1401,
      "__()": 1402,
      "pr": 1403,
      "Ġurl": 1404,
      "`,": 1405,
      "amp": 1406,
      "ost": 1407,
      "cast": 1408,
      "tion": 1409,
      ".\",": 1410,
      "ey": 1411,
      "ĠK": 1412,
      "ĠType": 1413,
      "(?": 1414,
      "are": 1415,
      "space": 1416,
      "ler": 1417,
      "position": 1418,
      "prod": 1419,
      "Ġreg": 1420,
      "ched": 1421,
      "ustom": 1422,
      "ich": 1423,
      "ported": 1424,
      "fields": 1425,
      "AG": 1426,
      "Ġother": 1427,
      "erge": 1428,
      "mpt": 1429,
      "SE": 1430,
      "Ġ10": 1431,
      "Ġprefix": 1432,
      "ool": 1433,
      "Ġz": 1434,
      "Ġone": 1435,
      "types": 1436,
      "Ġeps": 1437,
      "ĠDe": 1438,
      "oi": 1439,
      "Ġdoc": 1440,
      "attri": 1441,
      "Ġlin": 1442,
      "uto": 1443,
      "status": 1444,
      "clude": 1445,
      "ong": 1446,
      "orted": 1447,
      "Ġcls": 1448,
      "Ġ<=": 1449,
      "left": 1450,
      "Ġwhen": 1451,
      "Layer": 1452,
      "astype": 1453,
      "mult": 1454,
      "pression": 1455,
      "be": 1456,
      "RO": 1457,
      "ates": 1458,
      "seq": 1459,
      "inear": 1460,
      "Ġup": 1461,
      "Ġtotal": 1462,
      "Ġshould": 1463,
      "embeddings": 1464,
      "Co": 1465,
      "pute": 1466,
      "label": 1467,
      "lines": 1468,
      ".{": 1469,
      "bool": 1470,
      "edge": 1471,
      "conn": 1472,
      "https": 1473,
      "Ġcreate": 1474,
      "Ġlast": 1475,
      "sign": 1476,
      "Ġhelp": 1477,
      "mit": 1478,
      "Ġkeep": 1479,
      "pad": 1480,
      "Un": 1481,
      "ous": 1482,
      "ĠList": 1483,
      "SI": 1484,
      "pri": 1485,
      "Ġtrain": 1486,
      "AN": 1487,
      "ote": 1488,
      "response": 1489,
      "bytes": 1490,
      "source": 1491,
      "sq": 1492,
      "ci": 1493,
      "sing": 1494,
      "video": 1495,
      "LO": 1496,
      "has": 1497,
      "}\")": 1498,
      "rt": 1499,
      "move": 1500,
      "client": 1501,
      "xy": 1502,
      "atio": 1503,
      "Ġproject": 1504,
      "imum": 1505,
      "account": 1506,
      "word": 1507,
      "Ġloss": 1508,
      "padd": 1509,
      "andle": 1510,
      "ĠĠĠĠĠĠĠĠĠ": 1511,
      "allable": 1512,
      "md": 1513,
      "Ġ8": 1514,
      ".\")": 1515,
      "ical": 1516,
      "ved": 1517,
      "loss": 1518,
      "PE": 1519,
      "Ġmult": 1520,
      "Ġ>=": 1521,
      "Ġgiven": 1522,
      "25": 1523,
      "frame": 1524,
      "Ġ-----": 1525,
      "Ġent": 1526,
      "su": 1527,
      "flow": 1528,
      "ody": 1529,
      "ĠPar": 1530,
      "ager": 1531,
      "offset": 1532,
      "Ġargument": 1533,
      "pha": 1534,
      "encoder": 1535,
      "pool": 1536,
      "df": 1537,
      "dition": 1538,
      "ess": 1539,
      "her": 1540,
      "Ġtop": 1541,
      "heads": 1542,
      "udio": 1543,
      "Ġrank": 1544,
      "order": 1545,
      "Ġlength": 1546,
      "orig": 1547,
      "cy": 1548,
      "step": 1549,
      "Ġprocess": 1550,
      "rand": 1551,
      "Ġupdate": 1552,
      "lug": 1553,
      "\".": 1554,
      "utils": 1555,
      "ell": 1556,
      "medi": 1557,
      "over": 1558,
      "Ġindices": 1559,
      "'s": 1560,
      "search": 1561,
      "cent": 1562,
      "Ġcre": 1563,
      "stamp": 1564,
      "Ġpy": 1565,
      "present": 1566,
      "pose": 1567,
      "pout": 1568,
      "Ġelement": 1569,
      "vector": 1570,
      "Ser": 1571,
      "ds": 1572,
      "ropout": 1573,
      "Ġforward": 1574,
      "amb": 1575,
      "root": 1576,
      "fg": 1577,
      "ffer": 1578,
      "classes": 1579,
      "tf": 1580,
      "Ġat": 1581,
      "Ġboxes": 1582,
      "property": 1583,
      "'):": 1584,
      "next": 1585,
      "stack": 1586,
      "irst": 1587,
      "former": 1588,
      "Ġwhich": 1589,
      "Ġ},": 1590,
      "rap": 1591,
      "part": 1592,
      "alized": 1593,
      "ailable": 1594,
      "of": 1595,
      "seri": 1596,
      "Ġparam": 1597,
      "ally": 1598,
      "Ġha": 1599,
      "req": 1600,
      "coding": 1601,
      "Ġval": 1602,
      "Query": 1603,
      "Ġus": 1604,
      "Ġonly": 1605,
      "butes": 1606,
      "Ġĉ": 1607,
      "prompt": 1608,
      "Ġheight": 1609,
      "iance": 1610,
      "ĠĠĠĠĠĠ": 1611,
      "zero": 1612,
      "Ġfilter": 1613,
      "Ġexp": 1614,
      "20": 1615,
      "Ġne": 1616,
      "cket": 1617,
      "ake": 1618,
      "Ġhead": 1619,
      "An": 1620,
      "patch": 1621,
      "lection": 1622,
      "ĠAs": 1623,
      "CH": 1624,
      "]):": 1625,
      "=(": 1626,
      "right": 1627,
      "ap": 1628,
      "struct": 1629,
      "Ġenum": 1630,
      "`.": 1631,
      "gener": 1632,
      "atten": 1633,
      "og": 1634,
      "Ġasync": 1635,
      "lower": 1636,
      "rid": 1637,
      "wer": 1638,
      "isit": 1639,
      "Ġresults": 1640,
      "Ġstatus": 1641,
      "Ġevent": 1642,
      "ptimizer": 1643,
      "ws": 1644,
      "header": 1645,
      "attrs": 1646,
      "izes": 1647,
      "Ġfields": 1648,
      "CO": 1649,
      "En": 1650,
      "cord": 1651,
      "blocks": 1652,
      "chunk": 1653,
      "opset": 1654,
      "\"))": 1655,
      "Ġav": 1656,
      "egr": 1657,
      "Ġtemp": 1658,
      "Ġred": 1659,
      "000": 1660,
      "Ġoff": 1661,
      "optional": 1662,
      "top": 1663,
      "Ġcomm": 1664,
      "Ġfirst": 1665,
      "Ġrandom": 1666,
      "factor": 1667,
      "Linear": 1668,
      "als": 1669,
      "anager": 1670,
      "ents": 1671,
      "=-": 1672,
      "reak": 1673,
      "description": 1674,
      "ĠRes": 1675,
      "Ġarray": 1676,
      "fore": 1677,
      "lib": 1678,
      "like": 1679,
      "Ġbytes": 1680,
      "ole": 1681,
      "olution": 1682,
      "Ġoriginal": 1683,
      "abs": 1684,
      "ING": 1685,
      "Ġcolumn": 1686,
      "Ġlabel": 1687,
      "Ġov": 1688,
      "Ġheader": 1689,
      "latten": 1690,
      "stem": 1691,
      "Ġgraph": 1692,
      "wait": 1693,
      "ector": 1694,
      "`):": 1695,
      "Name": 1696,
      "options": 1697,
      "Ġleft": 1698,
      "do": 1699,
      "igh": 1700,
      "Ġchunk": 1701,
      "Ġsource": 1702,
      "(_": 1703,
      "MA": 1704,
      "level": 1705,
      "Ġattention": 1706,
      "samples": 1707,
      "Response": 1708,
      "mary": 1709,
      "startswith": 1710,
      "tric": 1711,
      "ized": 1712,
      "Ġover": 1713,
      "Ġright": 1714,
      "Ġpri": 1715,
      "Ġ{'": 1716,
      "ializer": 1717,
      "meta": 1718,
      "Ġspecifi": 1719,
      "pack": 1720,
      "sup": 1721,
      "Ġaction": 1722,
      "Ġgetattr": 1723,
      "cision": 1724,
      "html": 1725,
      "schema": 1726,
      "fir": 1727,
      "yle": 1728,
      "exec": 1729,
      "ints": 1730,
      "Ġany": 1731,
      "lease": 1732,
      "current": 1733,
      "ä¸": 1734,
      "Ġimg": 1735,
      "Conv": 1736,
      "ou": 1737,
      "rate": 1738,
      "Ġinstance": 1739,
      "hether": 1740,
      "ambda": 1741,
      "filename": 1742,
      "nection": 1743,
      ":]": 1744,
      "rite": 1745,
      "reshold": 1746,
      "Ġrepresent": 1747,
      "Params": 1748,
      "erate": 1749,
      "Ġso": 1750,
      "uster": 1751,
      "scope": 1752,
      "orage": 1753,
      "sg": 1754,
      "Ġ.": 1755,
      "Ġhasattr": 1756,
      "auth": 1757,
      "ĠĠĠĠĠĠĠĠĠĠĠĠĠĠĠĠĠĠĠĠĠĠĠĠĠĠĠĠĠĠĠĠ": 1758,
      "Ġ(\"": 1759,
      "quee": 1760,
      "Ġdimension": 1761,
      "msg": 1762,
      "rompt": 1763,
      "Ġallow": 1764,
      "iled": 1765,
      "Ġhave": 1766,
      "fter": 1767,
      "Ġsum": 1768,
      "true": 1769,
      "metadata": 1770,
      "istory": 1771,
      "Ġjson": 1772,
      "perator": 1773,
      "Ch": 1774,
      "lamb": 1775,
      "queeze": 1776,
      "Ġsplit": 1777,
      ")))": 1778,
      "points": 1779,
      "Ġenumerate": 1780,
      "Ġchar": 1781,
      "Ġ\"\"": 1782,
      "mis": 1783,
      "({": 1784,
      "tool": 1785,
      "hook": 1786,
      "lambda": 1787,
      "24": 1788,
      "uction": 1789,
      "template": 1790,
      "tree": 1791,
      "Ġfunc": 1792,
      "Ġsign": 1793,
      "Ġorder": 1794,
      "\"])": 1795,
      "LU": 1796,
      "RI": 1797,
      "db": 1798,
      "Ġlambda": 1799,
      "ĠUn": 1800,
      "Dict": 1801,
      "ook": 1802,
      "Ġu": 1803,
      "Ġbreak": 1804,
      "At": 1805,
      "img": 1806,
      "ternal": 1807,
      "tings": 1808,
      "Ġpart": 1809,
      "Ġweights": 1810,
      "bute": 1811,
      "std": 1812,
      "conds": 1813,
      "verse": 1814,
      "Ġopen": 1815,
      "trained": 1816,
      "Ġsig": 1817,
      "char": 1818,
      "number": 1819,
      "ĠJ": 1820,
      "Ġparameters": 1821,
      "Ġmetadata": 1822,
      "ES": 1823,
      "LM": 1824,
      "bot": 1825,
      "inf": 1826,
      "ops": 1827,
      "Ġ''": 1828,
      "ather": 1829,
      "pping": 1830,
      "Context": 1831,
      "ique": 1832,
      "pattern": 1833,
      "Ġ*,": 1834,
      "ĠException": 1835,
      "FI": 1836,
      "Ġ6": 1837,
      "Ġfound": 1838,
      "pper": 1839,
      "reduce": 1840,
      "Col": 1841,
      "dtypes": 1842,
      "(*": 1843,
      "gment": 1844,
      "lu": 1845,
      "llm": 1846,
      "store": 1847,
      "Ġread": 1848,
      "gest": 1849,
      ":`": 1850,
      "Ġmem": 1851,
      "variable": 1852,
      "Ġrequired": 1853,
      "fc": 1854,
      "Ġconv": 1855,
      "action": 1856,
      "TION": 1857,
      "cu": 1858,
      "ratio": 1859,
      "Ġsu": 1860,
      "ride": 1861,
      "factory": 1862,
      "Com": 1863,
      "staticmethod": 1864,
      "lot": 1865,
      "ones": 1866,
      "Ġmean": 1867,
      "Ġfilename": 1868,
      "Key": 1869,
      "mail": 1870,
      "Ġoffset": 1871,
      "Ġbut": 1872,
      "tensors": 1873,
      "eger": 1874,
      "last": 1875,
      "AB": 1876,
      "squeeze": 1877,
      "lete": 1878,
      "Ġparse": 1879,
      "Ġser": 1880,
      "cle": 1881,
      "local": 1882,
      "Ġexec": 1883,
      "results": 1884,
      "lation": 1885,
      "Ġsequence": 1886,
      "files": 1887,
      "CK": 1888,
      "organization": 1889,
      "def": 1890,
      "ET": 1891,
      "ie": 1892,
      "ility": 1893,
      "Ġglobal": 1894,
      "Return": 1895,
      "padding": 1896,
      "comple": 1897,
      "ify": 1898,
      "Ġsame": 1899,
      "Ġmsg": 1900,
      "element": 1901,
      "stra": 1902,
      "tag": 1903,
      "Ġlines": 1904,
      "Set": 1905,
      "post": 1906,
      "first": 1907,
      "Ġwork": 1908,
      "01": 1909,
      "UT": 1910,
      "qual": 1911,
      "Ġgrad": 1912,
      "gine": 1913,
      "transpose": 1914,
      "Output": 1915,
      "kv": 1916,
      "ilon": 1917,
      "kip": 1918,
      "nodes": 1919,
      "encode": 1920,
      "vars": 1921,
      "script": 1922,
      "Ġidx": 1923,
      "ature": 1924,
      "apping": 1925,
      "Tra": 1926,
      "make": 1927,
      "Ġcache": 1928,
      "Ġparent": 1929,
      "Ġstd": 1930,
      "Ġinst": 1931,
      "older": 1932,
      "Ġdiff": 1933,
      "mark": 1934,
      "temp": 1935,
      "ynam": 1936,
      "notated": 1937,
      "Ġposition": 1938,
      "memory": 1939,
      "mediate": 1940,
      "TY": 1941,
      "constant": 1942,
      "Ġctx": 1943,
      "Ġwindow": 1944,
      "Ġorganization": 1945,
      "Ġscope": 1946,
      "Int": 1947,
      "To": 1948,
      "UL": 1949,
      "requi": 1950,
      "Ġsorted": 1951,
      "Ġseq": 1952,
      "ĠData": 1953,
      "Ġinto": 1954,
      "strib": 1955,
      "sizes": 1956,
      "datetime": 1957,
      "ĠĠĠĠĠĠĠĠĠĠĠĠĠĠĠĠĠĠĠĠĠĠĠĠ": 1958,
      "ined": 1959,
      "Ġclient": 1960,
      "ATE": 1961,
      "Ġdatetime": 1962,
      "'],": 1963,
      "build": 1964,
      "BaseModel": 1965,
      "imit": 1966,
      "cri": 1967,
      "rapper": 1968,
      "Str": 1969,
      "parent": 1970,
      "Trans": 1971,
      "Ġschema": 1972,
      "labels": 1973,
      "(?:": 1974,
      "round": 1975,
      "disp": 1976,
      "Ġexpected": 1977,
      "Ġattn": 1978,
      "parameters": 1979,
      "linear": 1980,
      "ification": 1981,
      "Ġusing": 1982,
      "DI": 1983,
      "cont": 1984,
      "'),": 1985,
      "Ġprompt": 1986,
      "Ġstep": 1987,
      "python": 1988,
      "egration": 1989,
      "ason": 1990,
      "ĠPro": 1991,
      ")),": 1992,
      "clo": 1993,
      "stage": 1994,
      "environ": 1995,
      "lt": 1996,
      "ists": 1997,
      "ger": 1998,
      "Ġpatch": 1999,
      "dist": 2000,
      "Ġbot": 2001,
      "ï¼": 2002,
      "ategory": 2003,
      "Ġnext": 2004,
      "loc": 2005,
      "ĠPy": 2006,
      "Ġ\\": 2007,
      "Ġoptional": 2008,
      "score": 2009,
      "ns": 2010,
      "ĠAt": 2011,
      "ayload": 2012,
      "Ġsymb": 2013,
      ",)": 2014,
      "xx": 2015,
      "session": 2016,
      "Ġpattern": 2017,
      "essage": 2018,
      "ccess": 2019,
      "find": 2020,
      "ted": 2021,
      "hared": 2022,
      "Ġoutputs": 2023,
      "Ġdefaults": 2024,
      "mlp": 2025,
      "ross": 2026,
      "Ġdel": 2027,
      "Ġroot": 2028,
      "atches": 2029,
      "provider": 2030,
      "Ġtool": 2031,
      "Ġtable": 2032,
      "olicy": 2033,
      "ML": 2034,
      "wo": 2035,
      "lice": 2036,
      "ĠDefault": 2037,
      "Any": 2038,
      "Ġad": 2039,
      "Ġdist": 2040,
      "ĠAnnotated": 2041,
      "ating": 2042,
      "depth": 2043,
      "Ġnon": 2044,
      "lags": 2045,
      "mbed": 2046,
      "raph": 2047,
      "UN": 2048,
      "err": 2049,
      "Ġmo": 2050,
      "Ġwa": 2051,
      "ctionary": 2052,
      "convert": 2053,
      "logits": 2054,
      "angu": 2055,
      "CT": 2056,
      "uint": 2057,
      "Ġcor": 2058,
      "Ġstat": 2059,
      "host": 2060,
      "Ġarr": 2061,
      "Ġ:,": 2062,
      "anguage": 2063,
      "nown": 2064,
      "Pre": 2065,
      "dis": 2066,
      "Ġmodels": 2067,
      "arange": 2068,
      "AS": 2069,
      "dag": 2070,
      "ties": 2071,
      "backend": 2072,
      "Ġbuild": 2073,
      "hs": 2074,
      "where": 2075,
      "ĠSt": 2076,
      "andler": 2077,
      "Ġwhere": 2078,
      "State": 2079,
      "Ġfeature": 2080,
      "OT": 2081,
      "variance": 2082,
      "Ġtr": 2083,
      "Ġhelper": 2084,
      "rectory": 2085,
      "Ġreplace": 2086,
      "trics": 2087,
      "oice": 2088,
      "cul": 2089,
      "total": 2090,
      "Ġframe": 2091,
      "ĠID": 2092,
      "product": 2093,
      "}'": 2094,
      "inv": 2095,
      "only": 2096,
      "Ġiter": 2097,
      "Ġserializ": 2098,
      "RL": 2099,
      "Ġmerge": 2100,
      "ish": 2101,
      "\")]": 2102,
      "Ġfn": 2103,
      "used": 2104,
      "ocab": 2105,
      "parallel": 2106,
      "Ġlocal": 2107,
      "Ġtensors": 2108,
      "ingle": 2109,
      "Ġ`(": 2110,
      "Ġvariable": 2111,
      "Ġword": 2112,
      "Ġnames": 2113,
      "Ġtemplate": 2114,
      "Var": 2115,
      "full": 2116,
      "umber": 2117,
      "dentifi": 2118,
      "Ġdepth": 2119,
      "diff": 2120,
      "Ġ_,": 2121,
      "Ġsearch": 2122,
      "Ġ25": 2123,
      "compile": 2124,
      "...,": 2125,
      "Ġsys": 2126,
      "http": 2127,
      "Ġbin": 2128,
      "attributes": 2129,
      "NAM": 2130,
      "dum": 2131,
      "stream": 2132,
      "Ġsession": 2133,
      "Ġsupport": 2134,
      "ĠSequence": 2135,
      "Ġbet": 2136,
      "ĠRun": 2137,
      "queue": 2138,
      "vided": 2139,
      "Status": 2140,
      "can": 2141,
      "idual": 2142,
      "server": 2143,
      "dec": 2144,
      "TYPE": 2145,
      "side": 2146,
      "decode": 2147,
      "Ġprovider": 2148,
      "sqrt": 2149,
      "LI": 2150,
      "loy": 2151,
      "tile": 2152,
      "sig": 2153,
      "stant": 2154,
      "(\"--": 2155,
      "ĠCallable": 2156,
      "Valid": 2157,
      "Ġenv": 2158,
      "}\",": 2159,
      "Ġlabels": 2160,
      "sertion": 2161,
      "*,": 2162,
      "Gener": 2163,
      "çļ": 2164,
      "abled": 2165,
      "ĠOr": 2166,
      "expand": 2167,
      "mission": 2168,
      "Ġ12": 2169,
      "Ġavailable": 2170,
      "çļĦ": 2171,
      "Check": 2172,
      "ĠDict": 2173,
      "MP": 2174,
      "Ġvideo": 2175,
      "formation": 2176,
      "actor": 2177,
      "gn": 2178,
      "ike": 2179,
      "pc": 2180,
      "Ġform": 2181,
      "Input": 2182,
      "global": 2183,
      "Ġ\"\\": 2184,
      "child": 2185,
      "images": 2186,
      "cer": 2187,
      "Parameter": 2188,
      "lag": 2189,
      "ĠTypeError": 2190,
      "eval": 2191,
      "flatten": 2192,
      "Det": 2193,
      "dropout": 2194,
      "Ġ\".": 2195,
      "Ġfull": 2196,
      "rol": 2197,
      "chat": 2198,
      "igger": 2199,
      "ĠQ": 2200,
      "fp": 2201,
      "ume": 2202,
      "Ġ7": 2203,
      "etch": 2204,
      "rows": 2205,
      "none": 2206,
      "page": 2207,
      "Index": 2208,
      "-----": 2209,
      "FA": 2210,
      "groups": 2211,
      "buffer": 2212,
      "Ġdoes": 2213,
      "ĠParameters": 2214,
      "CON": 2215,
      "lm": 2216,
      "pol": 2217,
      "ĠAPI": 2218,
      "Request": 2219,
      "ain": 2220,
      "bbox": 2221,
      "ear": 2222,
      "lem": 2223,
      "Ġsrc": 2224,
      "dic": 2225,
      "ynamic": 2226,
      "Ġoptions": 2227,
      "]),": 2228,
      "mod": 2229,
      "Ġold": 2230,
      "extend": 2231,
      "Ġlimit": 2232,
      "lication": 2233,
      "helpers": 2234,
      "Ġmultip": 2235,
      "drop": 2236,
      "wrap": 2237,
      "limit": 2238,
      "mplement": 2239,
      "Ġkeys": 2240,
      "nan": 2241,
      "ud": 2242,
      "pred": 2243,
      "::": 2244,
      "color": 2245,
      "case": 2246,
      "fy": 2247,
      "steps": 2248,
      "Ġinfo": 2249,
      "emb": 2250,
      "Ġerrors": 2251,
      "Ġcase": 2252,
      "change": 2253,
      "activation": 2254,
      "TP": 2255,
      "ween": 2256,
      "Ġcontaining": 2257,
      "Or": 2258,
      "Run": 2259,
      "freq": 2260,
      "Info": 2261,
      "Ġmake": 2262,
      "ategy": 2263,
      "ailed": 2264,
      "cfg": 2265,
      "Ġfind": 2266,
      "Ġsingle": 2267,
      "modules": 2268,
      "ash": 2269,
      "decoder": 2270,
      "cell": 2271,
      "Ġreturned": 2272,
      "Ġvisit": 2273,
      "Ġ:]": 2274,
      "0000": 2275,
      "condition": 2276,
      "feature": 2277,
      "cuda": 2278,
      "cript": 2279,
      "</": 2280,
      "Net": 2281,
      "ZE": 2282,
      "egative": 2283,
      ")[": 2284,
      "math": 2285,
      "src": 2286,
      "ular": 2287,
      "ublic": 2288,
      "={\"": 2289,
      "vis": 2290,
      "\"][\"": 2291,
      "Ġinv": 2292,
      "Ġnet": 2293,
      "Exception": 2294,
      "âĸ": 2295,
      "Ġinclude": 2296,
      "Text": 2297,
      "ret": 2298,
      "seed": 2299,
      "Ġstruct": 2300,
      "Ġgot": 2301,
      "Ġselect": 2302,
      "original": 2303,
      "Ġawait": 2304,
      "ister": 2305,
      "Ġ16": 2306,
      "Ġcomple": 2307,
      "ources": 2308,
      "Event": 2309,
      "uard": 2310,
      "Ġ\"--": 2311,
      "Ġchild": 2312,
      "Ġalpha": 2313,
      "dentifier": 2314,
      "expression": 2315,
      "````": 2316,
      "Ġbackend": 2317,
      "exper": 2318,
      "link": 2319,
      "MS": 2320,
      "Ġedge": 2321,
      "unter": 2322,
      "Ġmatrix": 2323,
      "Ġ----------": 2324,
      "Path": 2325,
      "clip": 2326,
      "ffix": 2327,
      "gate": 2328,
      "Ġcustom": 2329,
      "Ġpi": 2330,
      "gen": 2331,
      "Ġpack": 2332,
      "forward": 2333,
      "Ġbetween": 2334,
      "vers": 2335,
      "Embed": 2336,
      "SON": 2337,
      "olve": 2338,
      "Ġdictionary": 2339,
      "Ġprod": 2340,
      "11": 2341,
      "Ġtypes": 2342,
      "Ġfiles": 2343,
      "matrix": 2344,
      "istr": 2345,
      "threshold": 2346,
      "classmethod": 2347,
      "Ġactivation": 2348,
      "Create": 2349,
      "the": 2350,
      "ĠĠĠĠĠĠĠĠĠĠĠĠĠĠĠĠĠĠĠĠĠĠĠĠĠĠĠ": 2351,
      "Ġcondition": 2352,
      "command": 2353,
      "sertionError": 2354,
      "vision": 2355,
      "Ġtokens": 2356,
      "Ġpool": 2357,
      "Ġprovided": 2358,
      "ĠAssertionError": 2359,
      "ĠResponse": 2360,
      "Block": 2361,
      "]))": 2362,
      "ndim": 2363,
      "role": 2364,
      "Ġ['": 2365,
      "mpling": 2366,
      "scores": 2367,
      "AD": 2368,
      "Ġnoise": 2369,
      "NAME": 2370,
      "Frame": 2371,
      "Ġver": 2372,
      "Ġhttps": 2373,
      "Ġref": 2374,
      "Ġencoding": 2375,
      "orld": 2376,
      "Ġdf": 2377,
      "verage": 2378,
      "Ġimages": 2379,
      "Ġgenerate": 2380,
      "ENT": 2381,
      "CE": 2382,
      "Ġmeta": 2383,
      "itional": 2384,
      "ested": 2385,
      "99": 2386,
      "span": 2387,
      "Ġsupported": 2388,
      "ĠBase": 2389,
      "Id": 2390,
      "non": 2391,
      "ĠY": 2392,
      "Ġ],": 2393,
      "aly": 2394,
      "program": 2395,
      "Ġparameter": 2396,
      "Ġdocument": 2397,
      "Bu": 2398,
      "Message": 2399,
      "sd": 2400,
      "ators": 2401,
      "Ġfeatures": 2402,
      "sort": 2403,
      "Ġtitle": 2404,
      "itor": 2405,
      "utf": 2406,
      "KE": 2407,
      "tp": 2408,
      "bn": 2409,
      "deta": 2410,
      "arn": 2411,
      "(**": 2412,
      "Not": 2413,
      "Ġtree": 2414,
      "Ġmemory": 2415,
      "AI": 2416,
      "End": 2417,
      "Ġhost": 2418,
      "pair": 2419,
      "perm": 2420,
      "Ġchannels": 2421,
      "As": 2422,
      "PU": 2423,
      "late": 2424,
      "ose": 2425,
      "write": 2426,
      "Ġbeta": 2427,
      "prob": 2428,
      "normal": 2429,
      "Ġzip": 2430,
      "SIZE": 2431,
      "Mock": 2432,
      "dered": 2433,
      "arning": 2434,
      "Ġapi": 2435,
      "entry": 2436,
      "Ġ\"\",": 2437,
      "Ġcop": 2438,
      "tial": 2439,
      "Ġarguments": 2440,
      "mul": 2441,
      "latform": 2442,
      "Ġentry": 2443,
      "override": 2444,
      "'.": 2445,
      "04": 2446,
      "ng": 2447,
      "si": 2448,
      "trace": 2449,
      "Ġmap": 2450,
      "document": 2451,
      "Ġexist": 2452,
      "models": 2453,
      "columns": 2454,
      "Time": 2455,
      "ov": 2456,
      "Ġoptimizer": 2457,
      "ayout": 2458,
      "noise": 2459,
      "Ġhelpers": 2460,
      ")}": 2461,
      "Ġconnection": 2462,
      "tention": 2463,
      "sue": 2464,
      "ink": 2465,
      "Ġreturns": 2466,
      "tection": 2467,
      "Ġcolor": 2468,
      "Ġ\",": 2469,
      "body": 2470,
      "ection": 2471,
      "Ġ&": 2472,
      "org": 2473,
      "stim": 2474,
      "Result": 2475,
      "supported": 2476,
      "prec": 2477,
      "auto": 2478,
      "mall": 2479,
      "window": 2480,
      "remove": 2481,
      "dient": 2482,
      "ĠPath": 2483,
      "attribute": 2484,
      ".,": 2485,
      "Invalid": 2486,
      "grid": 2487,
      "timestamp": 2488,
      "company": 2489,
      "ndarray": 2490,
      "import": 2491,
      "Ġthan": 2492,
      "Ġextract": 2493,
      "Ġneed": 2494,
      "PP": 2495,
      "ble": 2496,
      "cp": 2497,
      "itive": 2498,
      "exception": 2499,
      "ubl": 2500,
      "lugin": 2501,
      "File": 2502,
      "Graph": 2503,
      "gument": 2504,
      "my": 2505,
      "parser": 2506,
      "open": 2507,
      "ĠCo": 2508,
      "Ġaxes": 2509,
      "objects": 2510,
      "Operator": 2511,
      "ox": 2512,
      "Ġempty": 2513,
      "utor": 2514,
      "Ġafter": 2515,
      ")],": 2516,
      "mas": 2517,
      "ence": 2518,
      "Ġstack": 2519,
      "Ġspecified": 2520,
      "ABLE": 2521,
      "Ġauth": 2522,
      ")).": 2523,
      "ift": 2524,
      "'t": 2525,
      "Up": 2526,
      "]],": 2527,
      "bit": 2528,
      "Ġmath": 2529,
      "mapping": 2530,
      "Ġzero": 2531,
      "Ġfin": 2532,
      "Ġnodes": 2533,
      "uid": 2534,
      "Ġar": 2535,
      "Ġhistory": 2536,
      "ĠIt": 2537,
      "tokenizer": 2538,
      "Ġmessages": 2539,
      "Column": 2540,
      "onents": 2541,
      "core": 2542,
      "ĠAttri": 2543,
      "Image": 2544,
      "ead": 2545,
      "Ġcell": 2546,
      "ics": 2547,
      "Function": 2548,
      "_{": 2549,
      "Ġattr": 2550,
      "storage": 2551,
      "Ġdown": 2552,
      "\"].": 2553,
      "Ġbefore": 2554,
      "epsilon": 2555,
      "cr": 2556,
      "uted": 2557,
      "Ġcompute": 2558,
      "curs": 2559,
      "TTP": 2560,
      "zone": 2561,
      "Ġrename": 2562,
      "didate": 2563,
      "ential": 2564,
      "Ġwas": 2565,
      "concat": 2566,
      "cost": 2567,
      "parts": 2568,
      "extract": 2569,
      "checkpoint": 2570,
      "Ġgroups": 2571,
      "dentials": 2572,
      "API": 2573,
      "mm": 2574,
      "peat": 2575,
      "Ġpage": 2576,
      "iform": 2577,
      "Mode": 2578,
      "Pool": 2579,
      "style": 2580,
      "vious": 2581,
      "poch": 2582,
      "validate": 2583,
      "Ġscores": 2584,
      "QueryParams": 2585,
      "SC": 2586,
      "sparse": 2587,
      "exists": 2588,
      "Ġhandle": 2589,
      "IT": 2590,
      "audio": 2591,
      "select": 2592,
      "Ġapply": 2593,
      "Array": 2594,
      "dentity": 2595,
      "ĠRuntime": 2596,
      "lan": 2597,
      "Ġcal": 2598,
      "peline": 2599,
      "Ġmid": 2600,
      "Ġscore": 2601,
      "PO": 2602,
      "Ġvector": 2603,
      "Ġ).": 2604,
      "Ġcoord": 2605,
      "Ġtokenizer": 2606,
      "Ġmay": 2607,
      "tags": 2608,
      "irflow": 2609,
      "Parser": 2610,
      "oices": 2611,
      "Form": 2612,
      "ert": 2613,
      "led": 2614,
      "unsqueeze": 2615,
      "[:-": 2616,
      "Ġreduce": 2617,
      "Batch": 2618,
      "attempt": 2619,
      "Ġmetric": 2620,
      "Ġlayers": 2621,
      "Ġplt": 2622,
      "Ġmark": 2623,
      "unding": 2624,
      "masks": 2625,
      "Quant": 2626,
      "soft": 2627,
      "txt": 2628,
      "Met": 2629,
      "Ġport": 2630,
      "diction": 2631,
      "axes": 2632,
      "ocket": 2633,
      "handle": 2634,
      "mon": 2635,
      "Ġext": 2636,
      "div": 2637,
      "Ġ-=": 2638,
      "LayerNorm": 2639,
      "TO": 2640,
      "record": 2641,
      "pts": 2642,
      "functional": 2643,
      "MO": 2644,
      "\\\\": 2645,
      "dot": 2646,
      "App": 2647,
      "Vision": 2648,
      "med": 2649,
      "metric": 2650,
      "expected": 2651,
      "dense": 2652,
      "Comp": 2653,
      "gather": 2654,
      "allow": 2655,
      "Ġinformation": 2656,
      "Ġcreated": 2657,
      "Ġ\"_": 2658,
      "Ġabs": 2659,
      "Ġitems": 2660,
      "multip": 2661,
      "Ġmod": 2662,
      "Ġvalidate": 2663,
      "vironment": 2664,
      "oper": 2665,
      "delete": 2666,
      "annot": 2667,
      "Ġren": 2668,
      "Ġpred": 2669,
      "Ġplace": 2670,
      "gex": 2671,
      "shard": 2672,
      "ULT": 2673,
      "ME": 2674,
      "face": 2675,
      "uous": 2676,
      "wh": 2677,
      "del": 2678,
      "Ġseed": 2679,
      "Ġeval": 2680,
      "ities": 2681,
      "Ġlevel": 2682,
      "Process": 2683,
      "Ġcolumns": 2684,
      "ely": 2685,
      "Ġsent": 2686,
      "Embedding": 2687,
      "100": 2688,
      "Ġerr": 2689,
      "Ġtraining": 2690,
      "50": 2691,
      "QU": 2692,
      "alpha": 2693,
      "iteral": 2694,
      "messages": 2695,
      "Vi": 2696,
      "sequence": 2697,
      "contain": 2698,
      "Ġthen": 2699,
      "cret": 2700,
      "onent": 2701,
      "Ġtwo": 2702,
      "Ġ\"\")": 2703,
      "location": 2704,
      "Ġbody": 2705,
      "lim": 2706,
      "service": 2707,
      "'].": 2708,
      "Ġoperator": 2709,
      "Ġcharact": 2710,
      "'])": 2711,
      "ED": 2712,
      "greg": 2713,
      "Ġaudio": 2714,
      "60": 2715,
      "section": 2716,
      "road": 2717,
      "properties": 2718,
      "Ġoperation": 2719,
      "cum": 2720,
      "na": 2721,
      "rep": 2722,
      "ĠTuple": 2723,
      "Ġraw": 2724,
      "ĠOpen": 2725,
      "ialize": 2726,
      "lative": 2727,
      "Ġcopy": 2728,
      "manager": 2729,
      "}:": 2730,
      "Ġattrs": 2731,
      "KEY": 2732,
      "ctx": 2733,
      "Ġ'{": 2734,
      "compute": 2735,
      "Ġrepresenting": 2736,
      "cpu": 2737,
      "Ġops": 2738,
      "Ġmain": 2739,
      "partition": 2740,
      "bar": 2741,
      "go": 2742,
      "peri": 2743,
      "imal": 2744,
      "ĠNumber": 2745,
      "ĠRuntimeError": 2746,
      "Lo": 2747,
      "[...,": 2748,
      "Ġdt": 2749,
      "ilar": 2750,
      "Ġdis": 2751,
      "imilar": 2752,
      "ĠRequest": 2753,
      "Ġlogits": 2754,
      "sist": 2755,
      "wd": 2756,
      "Ġta": 2757,
      "Ġdeta": 2758,
      "esca": 2759,
      "\"]:": 2760,
      "ffect": 2761,
      "FAULT": 2762,
      "delta": 2763,
      "custom": 2764,
      "ont": 2765,
      "rection": 2766,
      "Ġcle": 2767,
      "tered": 2768,
      "fill": 2769,
      "symb": 2770,
      "Ġheaders": 2771,
      "hot": 2772,
      "real": 2773,
      "Ġ100": 2774,
      "ithub": 2775,
      "Ġpr": 2776,
      "ries": 2777,
      "ĠCh": 2778,
      "Ġyou": 2779,
      "Ġ-------": 2780,
      "proxy": 2781,
      "interval": 2782,
      "headers": 2783,
      "Ġ9": 2784,
      "Ġprev": 2785,
      "Search": 2786,
      "hash": 2787,
      "Get": 2788,
      "Ob": 2789,
      "desc": 2790,
      "Ġtag": 2791,
      "aml": 2792,
      "Ġdisp": 2793,
      "ranch": 2794,
      "bound": 2795,
      "Ġpost": 2796,
      "Table": 2797,
      "Ġfinal": 2798,
      "ability": 2799,
      "256": 2800,
      "serializ": 2801,
      "Ġĉĉ": 2802,
      "34": 2803,
      "bone": 2804,
      "known": 2805,
      "Ġdest": 2806,
      "board": 2807,
      "Ġmultiple": 2808,
      "Endpoint": 2809,
      "02": 2810,
      "reference": 2811,
      "alf": 2812,
      "alias": 2813,
      "ilder": 2814,
      "ixed": 2815,
      "Ġmore": 2816,
      "other": 2817,
      "alled": 2818,
      "Ġtransform": 2819,
      "+)": 2820,
      "Group": 2821,
      "SU": 2822,
      "cmd": 2823,
      "rule": 2824,
      "mesh": 2825,
      "ollow": 2826,
      "ĠCol": 2827,
      "Ġpredict": 2828,
      "Ġchat": 2829,
      "Ġshard": 2830,
      "Ġelements": 2831,
      "Ġ'''": 2832,
      "/{": 2833,
      "LAG": 2834,
      "RA": 2835,
      "æķ": 2836,
      "Ġpoint": 2837,
      "Serializer": 2838,
      "iant": 2839,
      "ays": 2840,
      "access": 2841,
      "transformer": 2842,
      "User": 2843,
      "]{": 2844,
      "Ġembed": 2845,
      "Ġembedding": 2846,
      "arm": 2847,
      "Ġ'.": 2848,
      "Ġperm": 2849,
      "contig": 2850,
      "probs": 2851,
      "Ġstop": 2852,
      "Ġsamples": 2853,
      "generate": 2854,
      "ination": 2855,
      "aris": 2856,
      "Ġskip": 2857,
      "ĠUnion": 2858,
      "flat": 2859,
      "util": 2860,
      "Ġcommand": 2861,
      "spect": 2862,
      "Ġauto": 2863,
      "job": 2864,
      "ton": 2865,
      "ĠNot": 2866,
      "Ġregion": 2867,
      "Ġkeepdims": 2868,
      "]]:": 2869,
      "ful": 2870,
      "now": 2871,
      "utable": 2872,
      "Ġconn": 2873,
      "usal": 2874,
      "Ġhash": 2875,
      "Ġcheckpoint": 2876,
      "mid": 2877,
      "tmp": 2878,
      "lap": 2879,
      "ĠFor": 2880,
      "paths": 2881,
      "Ġencode": 2882,
      "ivy": 2883,
      "Ġbucket": 2884,
      "display": 2885,
      "\"\\": 2886,
      "Py": 2887,
      "Ġstream": 2888,
      "allback": 2889,
      "apply": 2890,
      "backward": 2891,
      "processor": 2892,
      "arison": 2893,
      "lated": 2894,
      "mt": 2895,
      "åĪ": 2896,
      "difi": 2897,
      "Ġaccess": 2898,
      "roadcast": 2899,
      "VER": 2900,
      "slug": 2901,
      "Ġbbox": 2902,
      "uniform": 2903,
      "endswith": 2904,
      "ither": 2905,
      "oment": 2906,
      "Ġray": 2907,
      "errors": 2908,
      "training": 2909,
      "Ġdiffe": 2910,
      "close": 2911,
      "Ġwaiter": 2912,
      "For": 2913,
      "Ġrep": 2914,
      "lama": 2915,
      "Ġjob": 2916,
      "Auth": 2917,
      "ww": 2918,
      "Ġimplement": 2919,
      "ĠPre": 2920,
      "Ġtrace": 2921,
      "ï¼Į": 2922,
      "PRO": 2923,
      "Test": 2924,
      "mote": 2925,
      "Ġfactor": 2926,
      "ĠSer": 2927,
      "direct": 2928,
      "Ġdb": 2929,
      "issing": 2930,
      "Ġchange": 2931,
      "mock": 2932,
      "Ġunique": 2933,
      "ĠGener": 2934,
      "Argument": 2935,
      "ĠDefaults": 2936,
      "EX": 2937,
      "bers": 2938,
      "fer": 2939,
      "stop": 2940,
      "Ġresidual": 2941,
      "Ġcluster": 2942,
      "Ġ...,": 2943,
      "gpu": 2944,
      "uff": 2945,
      "Ġcmd": 2946,
      "Ġmetrics": 2947,
      "dataset": 2948,
      "Ġ32": 2949,
      "system": 2950,
      "stribution": 2951,
      "Ġden": 2952,
      "amma": 2953,
      "Ġstyle": 2954,
      "category": 2955,
      "long": 2956,
      "Ġcast": 2957,
      "uri": 2958,
      "ĠApi": 2959,
      "initializer": 2960,
      "summary": 2961,
      "Ġsymbolic": 2962,
      "culate": 2963,
      "Tool": 2964,
      "Ġembeddings": 2965,
      "ptr": 2966,
      "Ġpretrained": 2967,
      "Ġits": 2968,
      "ĠUser": 2969,
      "Task": 2970,
      "slice": 2971,
      "relu": 2972,
      "channel": 2973,
      "Ġmapping": 2974,
      "Ġinteger": 2975,
      "shapes": 2976,
      "precision": 2977,
      "Ġencoder": 2978,
      "safe": 2979,
      "sentry": 2980,
      "randint": 2981,
      "LAGS": 2982,
      "Scal": 2983,
      "With": 2984,
      "email": 2985,
      "riter": 2986,
      "ater": 2987,
      "Ġbased": 2988,
      "Ġcontains": 2989,
      "Ġpartition": 2990,
      "Ġserver": 2991,
      "Token": 2992,
      "âĸĪ": 2993,
      "PAT": 2994,
      "gments": 2995,
      "sorted": 2996,
      "Ġtmp": 2997,
      "Ġdec": 2998,
      "sert": 2999,
      "ĠCondition": 3000,
      "hy": 3001,
      "Ġreference": 3002,
      "ceiv": 3003,
      "pretrained": 3004,
      "timeout": 3005,
      "Me": 3006,
      "draw": 3007,
      "ian": 3008,
      "null": 3009,
      "enter": 3010,
      "entic": 3011,
      "cker": 3012,
      "olean": 3013,
      "bl": 3014,
      "Ġpix": 3015,
      "Ġdirectory": 3016,
      "counts": 3017,
      "ublish": 3018,
      "TH": 3019,
      "Ġign": 3020,
      "Ġdag": 3021,
      "Parallel": 3022,
      "Ġtimeout": 3023,
      "Ġpair": 3024,
      "Ġtx": 3025,
      "tract": 3026,
      "ĠNode": 3027,
      "embeds": 3028,
      "stract": 3029,
      "03": 3030,
      "WS": 3031,
      "wner": 3032,
      "Ġclo": 3033,
      "ending": 3034,
      "Ġprevious": 3035,
      "Ġcurr": 3036,
      "ogle": 3037,
      "Ġbinary": 3038,
      "æķ°": 3039,
      "Te": 3040,
      "Ġpd": 3041,
      "Ġdrop": 3042,
      "agic": 3043,
      "Ġalign": 3044,
      "Ġgenerated": 3045,
      "Ġcallback": 3046,
      "flags": 3047,
      "Ġ64": 3048,
      "Ġinp": 3049,
      "Ġsegment": 3050,
      "address": 3051,
      "ront": 3052,
      "area": 3053,
      "Ġlanguage": 3054,
      "verter": 3055,
      "Ġans": 3056,
      "egers": 3057,
      "Attention": 3058,
      "TER": 3059,
      "Ġfollow": 3060,
      "async": 3061,
      "ulti": 3062,
      "save": 3063,
      "undle": 3064,
      "intermediate": 3065,
      "'{": 3066,
      "'))": 3067,
      "aise": 3068,
      "inner": 3069,
      "Ġdecoder": 3070,
      "vals": 3071,
      "Ġvocab": 3072,
      "]).": 3073,
      "Ġpackage": 3074,
      "=_": 3075,
      "ured": 3076,
      "}{": 3077,
      "Ġaws": 3078,
      "Ġ--": 3079,
      "ĠModel": 3080,
      "web": 3081,
      "complex": 3082,
      "Mat": 3083,
      "optimizer": 3084,
      "Ġview": 3085,
      "sep": 3086,
      "respon": 3087,
      "Ġbound": 3088,
      "ĠWhether": 3089,
      "Ġproduct": 3090,
      "\"},": 3091,
      "dest": 3092,
      "ench": 3093,
      "Ġwhether": 3094,
      "ĠURL": 3095,
      "Ġmasks": 3096,
      "common": 3097,
      "DB": 3098,
      "ora": 3099,
      "Ġparts": 3100,
      "layout": 3101,
      "Ġrequires": 3102,
      "80": 3103,
      "qkv": 3104,
      "tifact": 3105,
      "Ġrows": 3106,
      "penden": 3107,
      "30": 3108,
      "github": 3109,
      "operator": 3110,
      "Ġter": 3111,
      "Ġcfg": 3112,
      "Ġrecord": 3113,
      "andard": 3114,
      "rypt": 3115,
      "cols": 3116,
      "acy": 3117,
      "Ġkeepdim": 3118,
      "15": 3119,
      "ef": 3120,
      "fail": 3121,
      "Ġtrue": 3122,
      "Ġ\"{": 3123,
      "OK": 3124,
      "VE": 3125,
      "Ġtimestamp": 3126,
      "ĠEn": 3127,
      "Ġinitial": 3128,
      "register": 3129,
      "Ġsigma": 3130,
      "attempts": 3131,
      "lens": 3132,
      "vate": 3133,
      "Ġhigh": 3134,
      "Ġnormalized": 3135,
      "Variable": 3136,
      "Hook": 3137,
      "merge": 3138,
      "ä»": 3139,
      "ĠĠĠĠĠĠĠĠĠĠĠĠĠĠ": 3140,
      "Ġexc": 3141,
      "ĠCom": 3142,
      "variables": 3143,
      "Ġignore": 3144,
      "Code": 3145,
      "It": 3146,
      "ek": 3147,
      "fra": 3148,
      "ATI": 3149,
      "settings": 3150,
      "cluster": 3151,
      "required": 3152,
      "MSNorm": 3153,
      "CA": 3154,
      "FF": 3155,
      "Mo": 3156,
      "git": 3157,
      "Ġ\"__": 3158,
      "ged": 3159,
      "Ġhook": 3160,
      "Ġcollection": 3161,
      "ĠretVal": 3162,
      "tools": 3163,
      "Object": 3164,
      "contiguous": 3165,
      "PTION": 3166,
      "aws": 3167,
      "folder": 3168,
      "history": 3169,
      "option": 3170,
      "Ġcrop": 3171,
      "ilter": 3172,
      "term": 3173,
      "Ġmaximum": 3174,
      "ĠKey": 3175,
      "Schema": 3176,
      "au": 3177,
      "crop": 3178,
      "Ġpayload": 3179,
      "Ġ((": 3180,
      "Ġgrid": 3181,
      "Ġspan": 3182,
      "filters": 3183,
      "By": 3184,
      "LD": 3185,
      "Tree": 3186,
      "less": 3187,
      "Ġfail": 3188,
      "pow": 3189,
      "sole": 3190,
      "execute": 3191,
      "Ġallowed": 3192,
      "Per": 3193,
      "[[": 3194,
      "\\.": 3195,
      "atial": 3196,
      "tom": 3197,
      "ĠIter": 3198,
      "Ġproper": 3199,
      "pix": 3200,
      "Exec": 3201,
      "Ġconfiguration": 3202,
      "Ġcomput": 3203,
      "Ġblocks": 3204,
      "istry": 3205,
      "Ġcoordin": 3206,
      "gt": 3207,
      "sha": 3208,
      "ority": 3209,
      "encoding": 3210,
      "Ġdep": 3211,
      "Ġrule": 3212,
      "derr": 3213,
      "Ġenvironment": 3214,
      "transform": 3215,
      "ĠPython": 3216,
      "after": 3217,
      "man": 3218,
      "eno": 3219,
      "Ġprecision": 3220,
      "Ġstrides": 3221,
      "æľ": 3222,
      "Ġdecor": 3223,
      "Ġlayout": 3224,
      "Ġprob": 3225,
      "Like": 3226,
      "gor": 3227,
      "ored": 3228,
      "patches": 3229,
      "loader": 3230,
      "Ġsecond": 3231,
      "okie": 3232,
      "pare": 3233,
      "available": 3234,
      "Encoder": 3235,
      "Ġsymbol": 3236,
      "Ġrate": 3237,
      "Ġdir": 3238,
      "Ġintermediate": 3239,
      "Ġpython": 3240,
      "gorith": 3241,
      "eed": 3242,
      "Ġfill": 3243,
      "asset": 3244,
      "ush": 3245,
      "quences": 3246,
      "Ġreduction": 3247,
      "domain": 3248,
      "LLM": 3249,
      "Sy": 3250,
      "epoch": 3251,
      "vml": 3252,
      "Ġfp": 3253,
      "Ġlat": 3254,
      "ensure": 3255,
      "cos": 3256,
      "lier": 3257,
      "Ġdomain": 3258,
      "ĠSee": 3259,
      "String": 3260,
      "det": 3261,
      "Ġremove": 3262,
      "collection": 3263,
      "Ġpoints": 3264,
      "Ġvariance": 3265,
      "expr": 3266,
      "center": 3267,
      "Date": 3268,
      "ech": 3269,
      "quential": 3270,
      "cessed": 3271,
      "Ca": 3272,
      "gre": 3273,
      "world": 3274,
      "send": 3275,
      "stall": 3276,
      "ullable": 3277,
      "worker": 3278,
      "wen": 3279,
      "ense": 3280,
      "enabled": 3281,
      "Ġenable": 3282,
      "oci": 3283,
      "Ġdims": 3284,
      "positions": 3285,
      "dispatch": 3286,
      "loyment": 3287,
      "eq": 3288,
      "nly": 3289,
      "shared": 3290,
      "ving": 3291,
      "odal": 3292,
      "inition": 3293,
      "pace": 3294,
      "Ġserializers": 3295,
      "escape": 3296,
      "IO": 3297,
      "Max": 3298,
      "beta": 3299,
      "unit": 3300,
      "integration": 3301,
      "Ġlower": 3302,
      "ĠOrganization": 3303,
      "Add": 3304,
      "dt": 3305,
      "final": 3306,
      "yp": 3307,
      "()),": 3308,
      "ationError": 3309,
      "Ġ[(": 3310,
      "proto": 3311,
      "icode": 3312,
      "ĠImage": 3313,
      "ERR": 3314,
      "docs": 3315,
      "member": 3316,
      "Ġdimensions": 3317,
      "gress": 3318,
      "rec": 3319,
      "Ġ\"/": 3320,
      "Ġexception": 3321,
      "Ġsystem": 3322,
      "128": 3323,
      "ialized": 3324,
      "before": 3325,
      "experts": 3326,
      "Ġwrite": 3327,
      "\").": 3328,
      "Ġdistance": 3329,
      "mount": 3330,
      "ific": 3331,
      "ĠInput": 3332,
      "paddle": 3333,
      "softmax": 3334,
      "Enum": 3335,
      "Out": 3336,
      "az": 3337,
      "flo": 3338,
      "visit": 3339,
      "Ġvision": 3340,
      "Ġproto": 3341,
      "moid": 3342,
      "single": 3343,
      "Ġtags": 3344,
      "Manager": 3345,
      "Size": 3346,
      "af": 3347,
      "cla": 3348,
      "fx": 3349,
      "olved": 3350,
      "ily": 3351,
      "Ġ[[": 3352,
      "stats": 3353,
      "Ġcontainer": 3354,
      "Ġcredentials": 3355,
      "MAX": 3356,
      "Ġsome": 3357,
      "ĠJSON": 3358,
      "ceived": 3359,
      "skip": 3360,
      "tax": 3361,
      "report": 3362,
      "ĠFunction": 3363,
      "uffle": 3364,
      "\"}": 3365,
      "Ġshared": 3366,
      "Ġsettings": 3367,
      "constra": 3368,
      "Ġselected": 3369,
      "agicMock": 3370,
      "Item": 3371,
      "][\"": 3372,
      "repeat": 3373,
      "Ġag": 3374,
      "export": 3375,
      "Ġdataset": 3376,
      "Expected": 3377,
      "ĠLiteral": 3378,
      "bucket": 3379,
      "Ġbuffer": 3380,
      "Ġotherwise": 3381,
      "LOCK": 3382,
      "Ġupdated": 3383,
      "Ġ128": 3384,
      "umel": 3385,
      "symbol": 3386,
      "19": 3387,
      "SER": 3388,
      "UID": 3389,
      "lr": 3390,
      "roll": 3391,
      "dictions": 3392,
      "strict": 3393,
      "termin": 3394,
      "Ġdilation": 3395,
      "ĠRaise": 3396,
      "Ġcandidate": 3397,
      "callback": 3398,
      "Ġboth": 3399,
      "_,": 3400,
      "cut": 3401,
      "lator": 3402,
      "Ġfig": 3403,
      "upper": 3404,
      "very": 3405,
      "Ġlook": 3406,
      "Instance": 3407,
      "alization": 3408,
      "logical": 3409,
      "ready": 3410,
      "serialize": 3411,
      "eded": 3412,
      "pk": 3413,
      "trol": 3414,
      "ATA": 3415,
      "come": 3416,
      "ĠTo": 3417,
      "resource": 3418,
      "Ġstage": 3419,
      "Ġlinear": 3420,
      "words": 3421,
      "BatchNorm": 3422,
      "imilarity": 3423,
      "Des": 3424,
      "IG": 3425,
      "Ġ\"%": 3426,
      "hed": 3427,
      "dapt": 3428,
      "show": 3429,
      "package": 3430,
      "Ġ256": 3431,
      "versation": 3432,
      "precated": 3433,
      "ai": 3434,
      "fin": 3435,
      "ories": 3436,
      "Ġflat": 3437,
      "Ġast": 3438,
      "icro": 3439,
      "ransp": 3440,
      "Ġparsed": 3441,
      "active": 3442,
      "Ġunit": 3443,
      "RMSNorm": 3444,
      "Tr": 3445,
      "Ġvi": 3446,
      "Ġsparse": 3447,
      "Ġdropout": 3448,
      "layernorm": 3449,
      "Ġrot": 3450,
      "Ġnormalize": 3451,
      "Ġoperations": 3452,
      "strides": 3453,
      "decay": 3454,
      "permute": 3455,
      "CTION": 3456,
      "IS": 3457,
      "atal": 3458,
      "arge": 3459,
      "unique": 3460,
      "Convert": 3461,
      "Ġchannel": 3462,
      "Ġrunning": 3463,
      "Ġpadded": 3464,
      "suffix": 3465,
      "Ġstatic": 3466,
      "cies": 3467,
      "asic": 3468,
      "Ġmissing": 3469,
      "coord": 3470,
      "ĠFile": 3471,
      "gorithm": 3472,
      "imple": 3473,
      "Ġsort": 3474,
      "Content": 3475,
      "ĠAttributes": 3476,
      "Sub": 3477,
      "æł": 3478,
      "Ġdynamic": 3479,
      "atted": 3480,
      "VAL": 3481,
      "ners": 3482,
      "eric": 3483,
      "Ġiou": 3484,
      "Ġcallable": 3485,
      "Ġpol": 3486,
      "Ġllm": 3487,
      "Ġshow": 3488,
      "cii": 3489,
      "ĠColumn": 3490,
      ")(?:": 3491,
      "bits": 3492,
      "duration": 3493,
      "vocab": 3494,
      "segment": 3495,
      "Ġflags": 3496,
      "Ġmon": 3497,
      "configs": 3498,
      "Ġthread": 3499,
      "Ġthreshold": 3500,
      "Ġsafe": 3501,
      "sys": 3502,
      "Ġserialize": 3503,
      "PATH": 3504,
      "uation": 3505,
      "chs": 3506,
      "Ġestim": 3507,
      "gradient": 3508,
      "edges": 3509,
      "=[\"": 3510,
      "ĠQuery": 3511,
      "arded": 3512,
      "let": 3513,
      "Ġfreq": 3514,
      "Ġdecode": 3515,
      "Ġeither": 3516,
      "ĠWe": 3517,
      "price": 3518,
      "Ġspecific": 3519,
      "Ġservice": 3520,
      "dumps": 3521,
      "just": 3522,
      "|:": 3523,
      "Ġreal": 3524,
      "rot": 3525,
      "Ġmlp": 3526,
      "oth": 3527,
      "Ġ[('": 3528,
      "ideo": 3529,
      "Provider": 3530,
      "Ġsigmas": 3531,
      "ered": 3532,
      "ling": 3533,
      "repo": 3534,
      "metrics": 3535,
      "Ġinplace": 3536,
      "uring": 3537,
      "lack": 3538,
      "Ġ1000": 3539,
      "Ġrand": 3540,
      "rency": 3541,
      "mpler": 3542,
      "Ġcounts": 3543,
      "Ġcommon": 3544,
      "Ġworker": 3545,
      "enchmark": 3546,
      "=\"\"": 3547,
      "apt": 3548,
      "opt": 3549,
      "eries": 3550,
      "choices": 3551,
      "resolve": 3552,
      "lied": 3553,
      "Constant": 3554,
      "Ġ20": 3555,
      "DESC": 3556,
      "TED": 3557,
      "events": 3558,
      "Ġexisting": 3559,
      "rontend": 3560,
      "ERROR": 3561,
      "public": 3562,
      "tol": 3563,
      "atter": 3564,
      "Ġgen": 3565,
      "team": 3566,
      "maximum": 3567,
      "Ġinstall": 3568,
      "ATION": 3569,
      "[\\": 3570,
      "neg": 3571,
      "åħ": 3572,
      "ĠConfig": 3573,
      "Ġnullable": 3574,
      "Ġdet": 3575,
      "Ġoption": 3576,
      "strategy": 3577,
      "Ġresource": 3578,
      "posit": 3579,
      "ignore": 3580,
      "sched": 3581,
      "Ġepsilon": 3582,
      "frames": 3583,
      "stributed": 3584,
      "âĸĪâĸĪ": 3585,
      "Di": 3586,
      "LA": 3587,
      "payload": 3588,
      "ven": 3589,
      "reason": 3590,
      "engine": 3591,
      "Ġsteps": 3592,
      "backbone": 3593,
      "matmul": 3594,
      "Ġnetwork": 3595,
      "Options": 3596,
      "Ġattribute": 3597,
      "oral": 3598,
      "delay": 3599,
      "Ġcy": 3600,
      "rope": 3601,
      "Ġscript": 3602,
      "Ġdp": 3603,
      "ĠTra": 3604,
      "thread": 3605,
      "Ġparallel": 3606,
      "ives": 3607,
      "Ġaddress": 3608,
      "commit": 3609,
      "Ġvariables": 3610,
      "ValidationError": 3611,
      "UP": 3612,
      "negative": 3613,
      "wrapper": 3614,
      "Ġattributes": 3615,
      "inp": 3616,
      "Ġwrap": 3617,
      "ession": 3618,
      "iltin": 3619,
      "Ġlow": 3620,
      "rowser": 3621,
      "Ġcombin": 3622,
      "running": 3623,
      "Ġposs": 3624,
      "({\"": 3625,
      "cross": 3626,
      "Ġqueue": 3627,
      "ĠQuant": 3628,
      "()]": 3629,
      "Ġconstant": 3630,
      "(\"/": 3631,
      "dence": 3632,
      "ocument": 3633,
      "chars": 3634,
      "Spec": 3635,
      "UM": 3636,
      "Ġ\"<": 3637,
      "Ġpolicy": 3638,
      "Ġsmall": 3639,
      "Ġdst": 3640,
      "Ġproj": 3641,
      "lists": 3642,
      "Ġmodules": 3643,
      "region": 3644,
      "avg": 3645,
      "SION": 3646,
      "Ġclean": 3647,
      "').": 3648,
      "handler": 3649,
      "Ġhttp": 3650,
      "atched": 3651,
      "uture": 3652,
      "Ġexpression": 3653,
      "Ġbounding": 3654,
      "Ġendpoint": 3655,
      "Ġobjects": 3656,
      "Ġcannot": 3657,
      "lang": 3658,
      "fici": 3659,
      "quare": 3660,
      "Ġequal": 3661,
      "Ġ...]": 3662,
      "multi": 3663,
      "ĠRaises": 3664,
      "URL": 3665,
      "deep": 3666,
      "lections": 3667,
      "Ġreason": 3668,
      "Ġinner": 3669,
      "Ġoptim": 3670,
      "ĠTask": 3671,
      "parameter": 3672,
      "Ġlink": 3673,
      "dump": 3674,
      "No": 3675,
      "Op": 3676,
      "]}": 3677,
      "ground": 3678,
      "ls": 3679,
      "policy": 3680,
      "rit": 3681,
      "åı": 3682,
      "Ġfailed": 3683,
      "ckle": 3684,
      "issue": 3685,
      "attach": 3686,
      "Ġengine": 3687,
      "Ġunder": 3688,
      "Ġpaths": 3689,
      "Ġcorrespon": 3690,
      "FLO": 3691,
      "IM": 3692,
      "cli": 3693,
      "equal": 3694,
      "yaml": 3695,
      "sections": 3696,
      "dep": 3697,
      "eras": 3698,
      "Ġopt": 3699,
      "timezone": 3700,
      "ĠDE": 3701,
      "lengths": 3702,
      "Ġargparse": 3703,
      "binary": 3704,
      "chatbot": 3705,
      "Ġstructure": 3706,
      "armup": 3707,
      "Ġdifferent": 3708,
      "DESCRI": 3709,
      "kind": 3710,
      "rary": 3711,
      "anded": 3712,
      "(\"\\": 3713,
      "question": 3714,
      "ersion": 3715,
      "ĠLo": 3716,
      "ensions": 3717,
      "SO": 3718,
      "]])": 3719,
      "sin": 3720,
      "enable": 3721,
      "Ġflatten": 3722,
      "Ġlike": 3723,
      "()))": 3724,
      "ĠĠĠĠĠĠĠĠĠĠĠĠĠ": 3725,
      "Ġ[],": 3726,
      "Ġratio": 3727,
      "chedule": 3728,
      "GET": 3729,
      "she": 3730,
      "Ġnegative": 3731,
      "Ġdetection": 3732,
      "Ġactor": 3733,
      "Ġbest": 3734,
      "Ġcounter": 3735,
      "Ġtrack": 3736,
      "DEFAULT": 3737,
      "Ġadditional": 3738,
      "Ġaccount": 3739,
      "AGE": 3740,
      "chunks": 3741,
      "Ġdisplay": 3742,
      "actions": 3743,
      "oid": 3744,
      "chain": 3745,
      "ĠCheck": 3746,
      "Ġlearning": 3747,
      "ifier": 3748,
      "````````": 3749,
      "Metadata": 3750,
      "Dis": 3751,
      "DATA": 3752,
      "Rep": 3753,
      "Reg": 3754,
      "}/": 3755,
      "æĸ": 3756,
      "enum": 3757,
      "Ġcu": 3758,
      "Ġ'%": 3759,
      "sampling": 3760,
      "ĠConv": 3761,
      "scheme": 3762,
      "partner": 3763,
      "hooks": 3764,
      "Ġdelta": 3765,
      "Ġwait": 3766,
      "ĠComp": 3767,
      "VI": 3768,
      "hen": 3769,
      "second": 3770,
      "Ġidentifier": 3771,
      "lex": 3772,
      "Ġreport": 3773,
      "Ġinspect": 3774,
      "dia": 3775,
      "lots": 3776,
      "ified": 3777,
      "Ġpipeline": 3778,
      "''": 3779,
      "40": 3780,
      ":-": 3781,
      "Action": 3782,
      "Class": 3783,
      "UD": 3784,
      "kw": 3785,
      "dev": 3786,
      "Ġreverse": 3787,
      "Ġplot": 3788,
      "uplic": 3789,
      "abc": 3790,
      "Ġdirect": 3791,
      "Ġpartial": 3792,
      "ivot": 3793,
      "scales": 3794,
      "compat": 3795,
      "ware": 3796,
      "Ġupper": 3797,
      "children": 3798,
      "Format": 3799,
      ")])": 3800,
      "Dec": 3801,
      "iase": 3802,
      "lev": 3803,
      "exit": 3804,
      "()._": 3805,
      "bose": 3806,
      "ĠNote": 3807,
      "splits": 3808,
      "mportError": 3809,
      "ParallelLinear": 3810,
      "Client": 3811,
      "HTTP": 3812,
      "MM": 3813,
      "aut": 3814,
      "bine": 3815,
      "|>": 3816,
      "()):": 3817,
      "scatter": 3818,
      "Ġelem": 3819,
      "clone": 3820,
      "ĠName": 3821,
      "INT": 3822,
      "components": 3823,
      "ugment": 3824,
      "Ġinstead": 3825,
      "View": 3826,
      "Ġfollowing": 3827,
      ")`):": 3828,
      "EST": 3829,
      "cing": 3830,
      "iod": 3831,
      "play": 3832,
      "Ġflag": 3833,
      "choice": 3834,
      "ĠTime": 3835,
      "ends": 3836,
      "Ġsepar": 3837,
      "usage": 3838,
      "ĠInt": 3839,
      "Ġids": 3840,
      "Ġboxlist": 3841,
      "Ġactual": 3842,
      "Ġfinally": 3843,
      "Method": 3844,
      "fs": 3845,
      "plot": 3846,
      "enc": 3847,
      "Ġsd": 3848,
      "ascii": 3849,
      "getattr": 3850,
      "Ġseconds": 3851,
      "Init": 3852,
      "DESCRIPTION": 3853,
      "56": 3854,
      "NN": 3855,
      "UR": 3856,
      "day": 3857,
      "hf": 3858,
      "nvml": 3859,
      "zip": 3860,
      "}}": 3861,
      "Ġab": 3862,
      "Ġ[-": 3863,
      "predict": 3864,
      "ffine": 3865,
      "formed": 3866,
      "origin": 3867,
      "MODE": 3868,
      "\">": 3869,
      "fet": 3870,
      "gle": 3871,
      "gree": 3872,
      "hi": 3873,
      "high": 3874,
      "ttp": 3875,
      "uuid": 3876,
      "è¯": 3877,
      "lector": 3878,
      "Ġ\"-": 3879,
      "mag": 3880,
      "Ġgr": 3881,
      "Ġstore": 3882,
      "\"][": 3883,
      "ĠMagicMock": 3884,
      "ugh": 3885,
      "Ġmulti": 3886,
      "Service": 3887,
      "straint": 3888,
      "dified": 3889,
      "FLAGS": 3890,
      "pl": 3891,
      "sk": 3892,
      "same": 3893,
      "Ġtri": 3894,
      "Ġfra": 3895,
      "Ġsin": 3896,
      "Ġabo": 3897,
      "exc": 3898,
      "etri": 3899,
      "ffff": 3900,
      "ĠMock": 3901,
      "Char": 3902,
      "details": 3903,
      "naps": 3904,
      "(\\": 3905,
      "native": 3906,
      "Ġge": 3907,
      "ression": 3908,
      "Ġtyp": 3909,
      "Ġ'_": 3910,
      "Ġintegration": 3911,
      "Ġdataclasses": 3912,
      "vertex": 3913,
      "Ġrole": 3914,
      "Ġmatches": 3915,
      "90": 3916,
      "beg": 3917,
      "year": 3918,
      "zen": 3919,
      "uter": 3920,
      "Ġslice": 3921,
      "Ġstrip": 3922,
      "Ġconf": 3923,
      "book": 3924,
      "aster": 3925,
      "Ġalias": 3926,
      "filer": 3927,
      "Ġvisited": 3928,
      "Ġedges": 3929,
      "Ġcharacters": 3930,
      "Ġcoordinates": 3931,
      "Iter": 3932,
      "platform": 3933,
      "release": 3934,
      "Ġclip": 3935,
      "ropy": 3936,
      "Ġdesc": 3937,
      "Ġap": 3938,
      "Ġlr": 3939,
      "pture": 3940,
      "()}": 3941,
      "ished": 3942,
      "arguments": 3943,
      "sym": 3944,
      "polation": 3945,
      "OP": 3946,
      "ln": 3947,
      "lst": 3948,
      "mand": 3949,
      "seconds": 3950,
      "Ġremain": 3951,
      "Ġmoment": 3952,
      "()[": 3953,
      "Ġissue": 3954,
      "istic": 3955,
      "Ġstorage": 3956,
      "normalized": 3957,
      "Ġbyte": 3958,
      "INE": 3959,
      "Sequential": 3960,
      "network": 3961,
      "cursive": 3962,
      "'\\": 3963,
      ".*": 3964,
      "LL": 3965,
      "Le": 3966,
      "TR": 3967,
      "dynamic": 3968,
      "optim": 3969,
      "td": 3970,
      "Ġdelete": 3971,
      "conf": 3972,
      "Ġ[{": 3973,
      "vec": 3974,
      "ected": 3975,
      "ĠOp": 3976,
      "Ġlocation": 3977,
      "Ġprediction": 3978,
      "``.": 3979,
      "Ġfunctions": 3980,
      "angle": 3981,
      "Ġ1024": 3982,
      "generator": 3983,
      "Ġsuccess": 3984,
      "requires": 3985,
      "control": 3986,
      "Organization": 3987,
      "Ġimplementation": 3988,
      "AC": 3989,
      "Handler": 3990,
      "SS": 3991,
      "hat": 3992,
      "Ġtl": 3993,
      "Ġclasses": 3994,
      "Ġwrapper": 3995,
      "Ġ*=": 3996,
      "lash": 3997,
      ").__": 3998,
      "ively": 3999,
      "Ġsave": 4000,
      "Ġsupports": 4001,
      "dp": 4002,
      "ale": 4003,
      "leg": 4004,
      "directory": 4005,
      "Ġ:=": 4006,
      "antic": 4007,
      "Ġjnp": 4008,
      "Ġalso": 4009,
      "scalar": 4010,
      "Ġcompat": 4011,
      "Ġdisable": 4012,
      "Sa": 4013,
      "Video": 4014,
      "holder": 4015,
      "identifier": 4016,
      "language": 4017,
      "ness": 4018,
      "numel": 4019,
      "}\\": 4020,
      "repr": 4021,
      "Ġrelative": 4022,
      "rozen": 4023,
      "loop": 4024,
      "Ġtheir": 4025,
      "connection": 4026,
      "ĠAl": 4027,
      "Ġseen": 4028,
      "Ġsecret": 4029,
      "ĠIN": 4030,
      "izationConfig": 4031,
      "loads": 4032,
      "TEST": 4033,
      "FILE": 4034,
      "Transformer": 4035,
      "Ġprint": 4036,
      "erasTensor": 4037,
      "flag": 4038,
      "fetch": 4039,
      "ging": 4040,
      "guard": 4041,
      "detection": 4042,
      "aries": 4043,
      "Ġcenter": 4044,
      "Ġnd": 4045,
      "Ġcond": 4046,
      "ĠVar": 4047,
      "success": 4048,
      "Ġfilters": 4049,
      "Ġexpand": 4050,
      "CHE": 4051,
      "packed": 4052,
      "pendencies": 4053,
      "Back": 4054,
      "Mem": 4055,
      "elem": 4056,
      "è¿": 4057,
      "endpoint": 4058,
      "Ġprogram": 4059,
      "Ġassign": 4060,
      "attentions": 4061,
      "short": 4062,
      "Ġround": 4063,
      "Ġscalar": 4064,
      "randn": 4065,
      "Ġ255": 4066,
      ",),": 4067,
      "Found": 4068,
      "HO": 4069,
      "cpp": 4070,
      "nested": 4071,
      "tz": 4072,
      "Ġarch": 4073,
      "Ġplugin": 4074,
      "ĠTe": 4075,
      "fidence": 4076,
      "uble": 4077,
      "ĠIndex": 4078,
      "Def": 4079,
      "Ġrequire": 4080,
      "stdout": 4081,
      "ESS": 4082,
      "Ġmerged": 4083,
      "Detector": 4084,
      "IP": 4085,
      "gr": 4086,
      "ves": 4087,
      "include": 4088,
      "install": 4089,
      "Ġthere": 4090,
      "addr": 4091,
      "ĠĠĠĠĠĠĠĠĠĠĠĠĠĠĠĠĠĠĠĠĠĠĠĠĠĠĠĠĠĠĠ": 4092,
      "ĠMapping": 4093,
      "rences": 4094,
      "Ġstrings": 4095,
      "ixin": 4096,
      "Ġgenerator": 4097,
      "Trigger": 4098,
      "schedule": 4099,
      "18": 4100,
      "win": 4101,
      "resize": 4102,
      "requen": 4103,
      "remote": 4104,
      "Ġgt": 4105,
      "Ġhow": 4106,
      "ĠImportError": 4107,
      "ibility": 4108,
      "Ġcomponents": 4109,
      "truth": 4110,
      "Ġsuffix": 4111,
      "theta": 4112,
      "container": 4113,
      "Box": 4114,
      "Oper": 4115,
      "broadcast": 4116,
      "leep": 4117,
      "help": 4118,
      "olute": 4119,
      "integers": 4120,
      "ĠGroup": 4121,
      "ĠHTTP": 4122,
      "sql": 4123,
      "ĠQwen": 4124,
      "FOR": 4125,
      "Ut": 4126,
      "_.": 4127,
      "light": 4128,
      "åĽ": 4129,
      "ç»": 4130,
      "Ġreq": 4131,
      "rou": 4132,
      "diag": 4133,
      "chors": 4134,
      "Ġaverage": 4135,
      "ilu": 4136,
      "variant": 4137,
      "inalg": 4138,
      "functions": 4139,
      "Proto": 4140,
      "Ġshort": 4141,
      "ellm": 4142,
      ")\"": 4143,
      "22": 4144,
      "Al": 4145,
      "Do": 4146,
      "Filter": 4147,
      "Hel": 4148,
      "Sto": 4149,
      "Tuple": 4150,
      "soci": 4151,
      "ten": 4152,
      "ĠStr": 4153,
      "Ġowner": 4154,
      "Ġbl": 4155,
      "Ġnamespace": 4156,
      "'][": 4157,
      "boxlist": 4158,
      "estim": 4159,
      "bsite": 4160,
      "ighb": 4161,
      "Ġcorrect": 4162,
      "Ġwords": 4163,
      "visible": 4164,
      "Ġpredicted": 4165,
      "CL": 4166,
      "gb": 4167,
      "xml": 4168,
      "internal": 4169,
      "utation": 4170,
      "Ġ({": 4171,
      "tices": 4172,
      "Ġkv": 4173,
      "actory": 4174,
      "quival": 4175,
      "ModelOutput": 4176,
      "Ġoverride": 4177,
      "Ġsummary": 4178,
      "Ġsignature": 4179,
      "pairs": 4180,
      "14": 4181,
      "Shape": 4182,
      "fake": 4183,
      "gamma": 4184,
      "ui": 4185,
      "ude": 4186,
      "Ġnested": 4187,
      "Ġthey": 4188,
      "iler": 4189,
      "prev": 4190,
      "Ġvllm": 4191,
      "ĠDi": 4192,
      "Ġjit": 4193,
      "}\".": 4194,
      "Ġtesting": 4195,
      "sdk": 4196,
      "Update": 4197,
      "Equ": 4198,
      "Identity": 4199,
      "Number": 4200,
      "ration": 4201,
      "Ġflow": 4202,
      "olding": 4203,
      "Ġconst": 4204,
      "Ġannot": 4205,
      "inds": 4206,
      "moved": 4207,
      "Ġshift": 4208,
      "ĠAsync": 4209,
      "structure": 4210,
      "Ġsentry": 4211,
      "Ġdetails": 4212,
      "pository": 4213,
      "begin": 4214,
      "Act": 4215,
      "åĲ": 4216,
      "ĠZ": 4217,
      "Ġ..": 4218,
      "separ": 4219,
      "align": 4220,
      "ĠSet": 4221,
      "ceil": 4222,
      "ĠText": 4223,
      "normalize": 4224,
      "dirs": 4225,
      "shuffle": 4226,
      "ĠHttp": 4227,
      "translator": 4228,
      "iou": 4229,
      "ALL": 4230,
      "})(?:": 4231,
      "gregate": 4232,
      "((\"": 4233,
      "Call": 4234,
      "hard": 4235,
      "ios": 4236,
      "sv": 4237,
      "Ġbn": 4238,
      "cks": 4239,
      "namespace": 4240,
      "Ġdtypes": 4241,
      "Ġenc": 4242,
      "Inter": 4243,
      "Ġalready": 4244,
      "Ġteam": 4245,
      "Ġsubprocess": 4246,
      "Ġperform": 4247,
      "Ġpermission": 4248,
      "ĠProject": 4249,
      "Ġchatbot": 4250,
      "ficient": 4251,
      "\"|\\": 4252,
      "200": 4253,
      "VIN": 4254,
      "aces": 4255,
      "bind": 4256,
      "gpt": 4257,
      "oogle": 4258,
      "Ġti": 4259,
      "Ġindic": 4260,
      "olver": 4261,
      "may": 4262,
      "ters": 4263,
      "ĠAirflow": 4264,
      "obile": 4265,
      "Ġperiod": 4266,
      "wap": 4267,
      "Ġmethods": 4268,
      "Count": 4269,
      "support": 4270,
      "completion": 4271,
      "Ġrender": 4272,
      "Optional": 4273,
      "æį": 4274,
      "Ġpe": 4275,
      "alk": 4276,
      "Ġcategory": 4277,
      "Ġrelease": 4278,
      "Ġprun": 4279,
      "Ġduring": 4280,
      "(\".": 4281,
      "Ġorg": 4282,
      "Ġdatabase": 4283,
      "Ġwithin": 4284,
      "Ġload": 4285,
      "END": 4286,
      "|\\\"|\\": 4287,
      "Ġexecution": 4288,
      "stages": 4289,
      "cumul": 4290,
      "napshot": 4291,
      "48": 4292,
      "Torch": 4293,
      "Wrapper": 4294,
      "bfloat": 4295,
      "ount": 4296,
      "erature": 4297,
      "Ġcalled": 4298,
      "Ġindent": 4299,
      "Ġdefined": 4300,
      "Ġnumbers": 4301,
      "Ġcos": 4302,
      "Ġanaly": 4303,
      "ranks": 4304,
      "Ġtopk": 4305,
      "Ġranks": 4306,
      "GE": 4307,
      "Multi": 4308,
      "gits": 4309,
      "half": 4310,
      "ality": 4311,
      "Ġretri": 4312,
      "peed": 4313,
      "Ġplatform": 4314,
      "struction": 4315,
      "Ġlong": 4316,
      "amount": 4317,
      "Ġgather": 4318,
      "ically": 4319,
      "percent": 4320,
      "Ġexclude": 4321,
      "processing": 4322,
      "Trained": 4323,
      "xxxx": 4324,
      "Ġserializer": 4325,
      "Asset": 4326,
      "78": 4327,
      "Eval": 4328,
      "false": 4329,
      "pw": 4330,
      "descript": 4331,
      "ency": 4332,
      "Ġsc": 4333,
      "direction": 4334,
      "abstract": 4335,
      "resolution": 4336,
      "Ġcomfy": 4337,
      "Ġ{})": 4338,
      "projection": 4339,
      "Ġweb": 4340,
      "Ġbackward": 4341,
      "Ġchunks": 4342,
      "Ġconvolution": 4343,
      "Ġexecute": 4344,
      "Returns": 4345,
      "quivalent": 4346,
      "HE": 4347,
      "NO": 4348,
      "Version": 4349,
      "uide": 4350,
      "Ġhtml": 4351,
      "sec": 4352,
      "degree": 4353,
      "Ġrepo": 4354,
      "external": 4355,
      "Ġ[])": 4356,
      "Ġemail": 4357,
      "Ġexport": 4358,
      "Ġprovide": 4359,
      "cause": 4360,
      "print": 4361,
      "signature": 4362,
      "=',": 4363,
      "PER": 4364,
      "impl": 4365,
      "pan": 4366,
      "sis": 4367,
      "Ġfeed": 4368,
      "Ġman": 4369,
      "Ġthem": 4370,
      "Ġworld": 4371,
      "ilities": 4372,
      "counter": 4373,
      "Ġpresent": 4374,
      "eature": 4375,
      "Sequence": 4376,
      "Ġpossible": 4377,
      "-{": 4378,
      "36": 4379,
      "76": 4380,
      "Dag": 4381,
      "US": 4382,
      "aded": 4383,
      "gin": 4384,
      "lora": 4385,
      "rer": 4386,
      "secret": 4387,
      "chor": 4388,
      "Ġlib": 4389,
      "ands": 4390,
      "Ġxs": 4391,
      "Ġord": 4392,
      "ower": 4393,
      "Ġwithout": 4394,
      "']:": 4395,
      "ReLU": 4396,
      "Ġsampling": 4397,
      "STR": 4398,
      "Ġpositive": 4399,
      "periment": 4400,
      "ĠIterable": 4401,
      "JSON": 4402,
      "Log": 4403,
      "Open": 4404,
      "rel": 4405,
      "learning": 4406,
      "hell": 4407,
      "Ġsq": 4408,
      "distance": 4409,
      "asure": 4410,
      "Ġmanager": 4411,
      "serve": 4412,
      "filepath": 4413,
      "latent": 4414,
      "Ġfiltered": 4415,
      "quantize": 4416,
      "Attri": 4417,
      "MLP": 4418,
      "Processor": 4419,
      ")\",": 4420,
      ".')": 4421,
      "DO": 4422,
      "MN": 4423,
      "ave": 4424,
      "relative": 4425,
      "Ġfetch": 4426,
      "Ġnull": 4427,
      "Ġside": 4428,
      "Ġbits": 4429,
      "ĠTrans": 4430,
      "Ġgre": 4431,
      "Ġsection": 4432,
      "Ġkind": 4433,
      "Ġproxy": 4434,
      "Ġbeen": 4435,
      "instances": 4436,
      "Ġyour": 4437,
      "Project": 4438,
      "Ġapplied": 4439,
      "Ġformatted": 4440,
      "Cache": 4441,
      "ĠToken": 4442,
      "fety": 4443,
      "[_": 4444,
      "oint": 4445,
      "ways": 4446,
      "Ġensure": 4447,
      "arrow": 4448,
      "adapt": 4449,
      "rich": 4450,
      "Ġkw": 4451,
      "ointer": 4452,
      "answer": 4453,
      "Ġevents": 4454,
      "Ġmarkdown": 4455,
      "Ġtxt": 4456,
      "ransport": 4457,
      "ĠQuantizationConfig": 4458,
      ":])": 4459,
      "Vector": 4460,
      "imp": 4461,
      "linalg": 4462,
      "pdf": 4463,
      "inference": 4464,
      "ĠĠĠĠĠĠĠĠĠĠ": 4465,
      "ĠRpc": 4466,
      "Ġcore": 4467,
      "ocation": 4468,
      "ĠBlock": 4469,
      "currency": 4470,
      "Ġscales": 4471,
      "Ġruntime": 4472,
      "created": 4473,
      "Ġconverted": 4474,
      "Unsupported": 4475,
      "clear": 4476,
      "sigma": 4477,
      "Metri": 4478,
      "rouped": 4479,
      "13": 4480,
      "]+": 4481,
      "bet": 4482,
      "Ġnow": 4483,
      "Ġoc": 4484,
      "Ġlst": 4485,
      "mploy": 4486,
      "argin": 4487,
      "Ġ15": 4488,
      "served": 4489,
      "cesses": 4490,
      "Ġvalidation": 4491,
      "Union": 4492,
      "prim": 4493,
      "offsets": 4494,
      "CHAR": 4495,
      "ä¸ª": 4496,
      "allowed": 4497,
      "Ġcharacter": 4498,
      "=\"\",": 4499,
      "maybe": 4500,
      "mploye": 4501,
      "75": 4502,
      "Ad": 4503,
      "Session": 4504,
      "free": 4505,
      "analy": 4506,
      "hex": 4507,
      "Ġamount": 4508,
      "Ġhy": 4509,
      "ĠCreate": 4510,
      "users": 4511,
      "Ġtests": 4512,
      "Ġtransformer": 4513,
      "Ġadded": 4514,
      "uardra": 4515,
      ":,": 4516,
      "Pi": 4517,
      "ae": 4518,
      "sync": 4519,
      "orical": 4520,
      "anh": 4521,
      "Ġinvalid": 4522,
      "unct": 4523,
      "Ġdot": 4524,
      "integer": 4525,
      "Ġ512": 4526,
      "LUMN": 4527,
      "Transform": 4528,
      "ArgumentParser": 4529,
      "Scalar": 4530,
      ")}\"": 4531,
      "05": 4532,
      "dle": 4533,
      "ele": 4534,
      "eff": 4535,
      "ice": 4536,
      "jit": 4537,
      "sm": 4538,
      "invalid": 4539,
      "Ġreader": 4540,
      "Ġpw": 4541,
      "dilation": 4542,
      "named": 4543,
      "__)": 4544,
      "Ġsequences": 4545,
      "partial": 4546,
      "Ġequivalent": 4547,
      "ivity": 4548,
      "ĠBox": 4549,
      "Ġsetattr": 4550,
      "Stream": 4551,
      "shift": 4552,
      "1234": 4553,
      "Ġoverlap": 4554,
      "Tracker": 4555,
      "www": 4556,
      "Ġpixel": 4557,
      "rypted": 4558,
      "MODEL": 4559,
      ">\\": 4560,
      "Rule": 4561,
      "xs": 4562,
      "indent": 4563,
      "sen": 4564,
      "Ġinclu": 4565,
      "Ġneg": 4566,
      "Ġpublic": 4567,
      "ĠPer": 4568,
      "ĠĠĠĠĠĠĠĠĠĠĠĠĠĠĠĠĠ": 4569,
      "track": 4570,
      "scaling": 4571,
      "Param": 4572,
      "Ġstates": 4573,
      "registry": 4574,
      "ä¸Ģ": 4575,
      "globals": 4576,
      "Ent": 4577,
      "QL": 4578,
      "sible": 4579,
      "insert": 4580,
      "Ġtax": 4581,
      "Ġsizes": 4582,
      "Ġ'\\": 4583,
      "__.": 4584,
      "ĠBLOCK": 4585,
      "render": 4586,
      "oled": 4587,
      "elements": 4588,
      "ĠĠĠĠĠĠĠĠĠĠĠĠĠĠĠĠĠĠĠĠĠĠĠĠĠĠĠĠ": 4589,
      "âĸĳ": 4590,
      "=|\\": 4591,
      "TABLE": 4592,
      "Whether": 4593,
      "card": 4594,
      "rin": 4595,
      "}_": 4596,
      "è¡": 4597,
      "antile": 4598,
      "Ġfake": 4599,
      "Ġreshape": 4600,
      "ĠĠĠĠĠĠĠĠĠĠĠĠ": 4601,
      "__,": 4602,
      "ĠDis": 4603,
      "validator": 4604,
      "cap": 4605,
      "ĠGet": 4606,
      "runtime": 4607,
      "strings": 4608,
      "DataFrame": 4609,
      "123": 4610,
      "Ġ50": 4611,
      "correct": 4612,
      "Ġentries": 4613,
      "wrapped": 4614,
      "Build": 4615,
      "Ġcorresponding": 4616,
      "æĸĩ": 4617,
      "æį®": 4618,
      "84": 4619,
      ">\"": 4620,
      "PT": 4621,
      "br": 4622,
      "dDict": 4623,
      "two": 4624,
      "}),": 4625,
      "Ġ'-": 4626,
      "ĠAI": 4627,
      "Ġexists": 4628,
      "callable": 4629,
      "ĠsetUp": 4630,
      "quired": 4631,
      "Ġgeneration": 4632,
      "Ġtrunc": 4633,
      "TYPES": 4634,
      "ĠAttribute": 4635,
      "pixel": 4636,
      "floor": 4637,
      "And": 4638,
      "Sum": 4639,
      "XT": 4640,
      "glob": 4641,
      "ient": 4642,
      "ker": 4643,
      "micro": 4644,
      "try": 4645,
      "anit": 4646,
      "Ġmu": 4647,
      "Ġmy": 4648,
      "Ġduration": 4649,
      "havi": 4650,
      "Ġbeing": 4651,
      "cident": 4652,
      "Ġusage": 4653,
      "author": 4654,
      "Ġsuch": 4655,
      "96": 4656,
      "Cre": 4657,
      "TML": 4658,
      "effect": 4659,
      "small": 4660,
      "ãĢ": 4661,
      "Ġ$": 4662,
      "regex": 4663,
      "ended": 4664,
      "Ġrel": 4665,
      "celer": 4666,
      "unic": 4667,
      "olume": 4668,
      "Ġwant": 4669,
      "amily": 4670,
      "sets": 4671,
      "application": 4672,
      "Ġvis": 4673,
      "outer": 4674,
      "ĠOutput": 4675,
      "Ġsetup": 4676,
      "--------": 4677,
      "Ġorigin": 4678,
      "ategories": 4679,
      "sume": 4680,
      "ĠDataFrame": 4681,
      "sigmoid": 4682,
      "Ġabout": 4683,
      "Th": 4684,
      "rhs": 4685,
      "Ġbranch": 4686,
      "maps": 4687,
      "hain": 4688,
      "ssian": 4689,
      "Ġstrategy": 4690,
      "ĠĠĠĠĠĠĠĠĠĠĠĠĠĠĠĠĠĠĠĠĠ": 4691,
      "scaled": 4692,
      "Ġarea": 4693,
      "Ġseries": 4694,
      "executor": 4695,
      "Ġboto": 4696,
      "iases": 4697,
      "Ġndarray": 4698,
      "17": 4699,
      "400": 4700,
      "He": 4701,
      "Meta": 4702,
      "æŀ": 4703,
      "çĶ": 4704,
      "Ġet": 4705,
      "Ġio": 4706,
      "ings": 4707,
      "Ġdum": 4708,
      "Ġstrict": 4709,
      "Ġuses": 4710,
      "ĠUUID": 4711,
      "ĠContext": 4712,
      "ava": 4713,
      "COLUMN": 4714,
      "clean": 4715,
      "Ġcalculate": 4716,
      "Ġencoded": 4717,
      "Ġcombined": 4718,
      "requency": 4719,
      "55": 4720,
      "Av": 4721,
      "Head": 4722,
      "ND": 4723,
      "VAR": 4724,
      "dst": 4725,
      "fast": 4726,
      "vit": 4727,
      "peak": 4728,
      "Ġnan": 4729,
      "Ġlang": 4730,
      "times": 4731,
      "ĠĠĠĠĠĠĠĠĠĠĠĠĠĠĠĠĠĠĠĠ": 4732,
      "Ġloc": 4733,
      "Configuration": 4734,
      "Ġlet": 4735,
      "Ġleast": 4736,
      "Device": 4737,
      "SET": 4738,
      "patterns": 4739,
      "ashboard": 4740,
      "Ġdestination": 4741,
      "Moe": 4742,
      "([\"": 4743,
      "CS": 4744,
      "ia": 4745,
      "plugin": 4746,
      "plan": 4747,
      "uate": 4748,
      "ym": 4749,
      "Ġfalse": 4750,
      "dients": 4751,
      "Ġbboxes": 4752,
      "Ġstored": 4753,
      "feed": 4754,
      "Ġcommit": 4755,
      "cording": 4756,
      "series": 4757,
      "Chat": 4758,
      "Ġstdout": 4759,
      "azy": 4760,
      "BO": 4761,
      "CR": 4762,
      "FO": 4763,
      "Mixin": 4764,
      "SH": 4765,
      "This": 4766,
      "]['": 4767,
      "llama": 4768,
      "nx": 4769,
      "way": 4770,
      "reader": 4771,
      "ster": 4772,
      "Ġfree": 4773,
      "Ġinference": 4774,
      "rough": 4775,
      "istics": 4776,
      "ĠMessage": 4777,
      "ĠLLM": 4778,
      "moe": 4779,
      "ĠGraph": 4780,
      "Ġtimes": 4781,
      "Ġtasks": 4782,
      "Decoder": 4783,
      "Detail": 4784,
      "changed": 4785,
      "Ġcomplex": 4786,
      "Pooling": 4787,
      "ĠVariable": 4788,
      "abstractmethod": 4789,
      ")\"\"\"": 4790,
      "*):": 4791,
      "Callable": 4792,
      "Red": 4793,
      "}',": 4794,
      "Ġå": 4795,
      "Ġutils": 4796,
      "Ġip": 4797,
      "Ġrec": 4798,
      "Ġpatches": 4799,
      "Ġspace": 4800,
      "Ġmost": 4801,
      "Ġ'--": 4802,
      "Ġconstruct": 4803,
      "ĠAWS": 4804,
      "profile": 4805,
      "serv": 4806,
      "ĠClass": 4807,
      "Ġenabled": 4808,
      "Exist": 4809,
      "arrays": 4810,
      "indexes": 4811,
      "comment": 4812,
      "ĠWhen": 4813,
      "trunc": 4814,
      "Comple": 4815,
      "Ġpixels": 4816,
      "Ġanswer": 4817,
      "Store": 4818,
      "NOT": 4819,
      "OUT": 4820,
      "Pos": 4821,
      "PUT": 4822,
      "Publish": 4823,
      "rest": 4824,
      "Ġind": 4825,
      "Ġmut": 4826,
      "rable": 4827,
      "Ġbit": 4828,
      "master": 4829,
      "isode": 4830,
      "abel": 4831,
      "Ġglob": 4832,
      "spatial": 4833,
      "ĠLayer": 4834,
      "defaults": 4835,
      "lineno": 4836,
      "ĠInvalid": 4837,
      "targets": 4838,
      "tasks": 4839,
      "Ġmatching": 4840,
      "Ġrepresents": 4841,
      "period": 4842,
      "ĠApiPublish": 4843,
      "æķ°æį®": 4844,
      "UDA": 4845,
      "ĠApiPublishStatus": 4846,
      ":],": 4847,
      "frontend": 4848,
      "opts": 4849,
      "decor": 4850,
      "Ġwin": 4851,
      "ressed": 4852,
      "ntax": 4853,
      "Ġmeans": 4854,
      ").\"\"\"": 4855,
      "country": 4856,
      "mbers": 4857,
      "based": 4858,
      "workers": 4859,
      "Ġserialized": 4860,
      "mpty": 4861,
      "Ġrepresentation": 4862,
      "missing": 4863,
      "Compute": 4864,
      "Generate": 4865,
      "sistant": 4866,
      "OKerasTensor": 4867,
      "Ġvia": 4868,
      "VINOKerasTensor": 4869,
      "Bo": 4870,
      "WOR": 4871,
      "bboxes": 4872,
      "ux": 4873,
      "utes": 4874,
      "Ġsha": 4875,
      "Ġdistribution": 4876,
      "actual": 4877,
      "']['": 4878,
      "Ġ})": 4879,
      "ĠConvert": 4880,
      "candidate": 4881,
      "Ass": 4882,
      "BU": 4883,
      "](": 4884,
      "bundle": 4885,
      "jor": 4886,
      "ining": 4887,
      "inator": 4888,
      "Ġpivot": 4889,
      "Ġsm": 4890,
      "Ġadapt": 4891,
      "Ġtheta": 4892,
      "ism": 4893,
      "Ġ',": 4894,
      "resources": 4895,
      "Ġgm": 4896,
      "Ġsep": 4897,
      "Ġsend": 4898,
      "Ġstandard": 4899,
      "Ġstderr": 4900,
      "Constraint": 4901,
      "ĠDag": 4902,
      "grams": 4903,
      "Ġ30": 4904,
      "ĠUse": 4905,
      "Parse": 4906,
      "curity": 4907,
      "1024": 4908,
      "Ġcomponent": 4909,
      "Ġ60": 4910,
      "Integer": 4911,
      "disable": 4912,
      "-%": 4913,
      "Gra": 4914,
      "MIN": 4915,
      "PRI": 4916,
      "SError": 4917,
      "affine": 4918,
      "Ġ\"\".": 4919,
      "Ġfast": 4920,
      "rox": 4921,
      "Ġpie": 4922,
      "Ġmp": 4923,
      "rag": 4924,
      "unch": 4925,
      "Ġlarge": 4926,
      "mpy": 4927,
      "Ġcontrol": 4928,
      "additional": 4929,
      "Ġmesh": 4930,
      "usion": 4931,
      "numeric": 4932,
      "ferences": 4933,
      "masked": 4934,
      "Ġscaled": 4935,
      "specs": 4936,
      "cached": 4937,
      "Ġavg": 4938,
      "Ġtrigger": 4939,
      "GraphContext": 4940,
      "Operation": 4941,
      "PRE": 4942,
      "å¤": 4943,
      "è¾": 4944,
      "Ġndim": 4945,
      "Ġpublish": 4946,
      "Ġsimple": 4947,
      "Ġaut": 4948,
      "Ġforce": 4949,
      "maz": 4950,
      "ĠApp": 4951,
      "anced": 4952,
      "live": 4953,
      "Ġassoci": 4954,
      "TypedDict": 4955,
      "Ġscaling": 4956,
      "specific": 4957,
      "Ġactive": 4958,
      "quantized": 4959,
      "celerator": 4960,
      "CP": 4961,
      "Pri": 4962,
      "Rot": 4963,
      "pid": 4964,
      "enate": 4965,
      "inite": 4966,
      "ĠOnly": 4967,
      "Ġloop": 4968,
      "ĠNV": 4969,
      "ĠBin": 4970,
      "Stack": 4971,
      "tainer": 4972,
      "Ġmasked": 4973,
      "Ġcompany": 4974,
      "Ġaccept": 4975,
      "MAPP": 4976,
      "require": 4977,
      "MAPPING": 4978,
      ".',": 4979,
      "Element": 4980,
      "Source": 4981,
      "lhs": 4982,
      "sn": 4983,
      "sw": 4984,
      "sleep": 4985,
      "ĠSchema": 4986,
      "disc": 4987,
      "lod": 4988,
      "putes": 4989,
      "cookie": 4990,
      "this": 4991,
      "power": 4992,
      "texts": 4993,
      "Ġprocessed": 4994,
      "Ġ<<": 4995,
      "minimum": 4996,
      "sampler": 4997,
      "Ġalgorithm": 4998,
      "force": 4999,
      "buf": 5000,
      "tests": 5001,
      "RED": 5002,
      "Ġinterval": 5003,
      "Fields": 5004,
      "arest": 5005,
      "infer": 5006,
      "FIG": 5007,
      "Ġmember": 5008,
      "Ġreplacement": 5009,
      "ĠAttributeError": 5010,
      "mazon": 5011,
      "33": 5012,
      "Weight": 5013,
      "failed": 5014,
      "gm": 5015,
      "ome": 5016,
      "onitor": 5017,
      "stderr": 5018,
      "Ġtz": 5019,
      "Ġtake": 5020,
      "Ġimp": 5021,
      "ueue": 5022,
      "look": 5023,
      "ĠAuto": 5024,
      "(\".\")": 5025,
      "Ġpredictions": 5026,
      "Ġkeyword": 5027,
      "ayment": 5028,
      "subclass": 5029,
      "Ġvariant": 5030,
      "connect": 5031,
      "255": 5032,
      "charact": 5033,
      "Ġoffsets": 5034,
      "Ġpatterns": 5035,
      "Ġcompletion": 5036,
      "ĠOpenVINOKerasTensor": 5037,
      "Permission": 5038,
      "attachment": 5039,
      "BY": 5040,
      "DP": 5041,
      "Estim": 5042,
      "JE": 5043,
      "branch": 5044,
      "gno": 5045,
      "hand": 5046,
      "arize": 5047,
      "Ġcross": 5048,
      "Ġinf": 5049,
      "ĠTest": 5050,
      "__.__": 5051,
      "ifest": 5052,
      "numbers": 5053,
      "ĠBatch": 5054,
      "csv": 5055,
      "DIR": 5056,
      "PreTrained": 5057,
      "diffe": 5058,
      "latest": 5059,
      "Ġmapped": 5060,
      "clamp": 5061,
      "DESCRIPTIONS": 5062,
      "28": 5063,
      "fold": 5064,
      "hist": 5065,
      "sure": 5066,
      "reset": 5067,
      "iton": 5068,
      "Ġbar": 5069,
      "edit": 5070,
      "otion": 5071,
      "ORT": 5072,
      "thresh": 5073,
      "quote": 5074,
      "queries": 5075,
      "proc": 5076,
      "permission": 5077,
      "validation": 5078,
      "licit": 5079,
      "sudo": 5080,
      "Ġheads": 5081,
      "Settings": 5082,
      "multiply": 5083,
      "hyper": 5084,
      "*.": 5085,
      "23": 5086,
      "Long": 5087,
      "Sign": 5088,
      "bb": 5089,
      "Ġem": 5090,
      "Ġ\"\"),": 5091,
      "itch": 5092,
      "assign": 5093,
      "ORE": 5094,
      "istered": 5095,
      "Ġhandler": 5096,
      "dimension": 5097,
      "preds": 5098,
      "fft": 5099,
      "ĠDo": 5100,
      "('--": 5101,
      "Ġjax": 5102,
      "dirname": 5103,
      "Ġcomparison": 5104,
      "Ġregister": 5105,
      "Unknown": 5106,
      "Engine": 5107,
      "Ġpositions": 5108,
      "Ġbottom": 5109,
      "Ġterm": 5110,
      "termine": 5111,
      "Ġlatent": 5112,
      "ĠDEFAULT": 5113,
      "Initialize": 5114,
      "AX": 5115,
      "IC": 5116,
      "MET": 5117,
      "Of": 5118,
      "PAR": 5119,
      "åº": 5120,
      "Ġfallback": 5121,
      "uting": 5122,
      "itect": 5123,
      "Ġschedule": 5124,
      "chron": 5125,
      "construct": 5126,
      "Ġ'=',": 5127,
      "Ġxmin": 5128,
      "Ġlists": 5129,
      "reduction": 5130,
      "ĠIP": 5131,
      "001": 5132,
      "Ġaspect": 5133,
      "Ġalways": 5134,
      "Stat": 5135,
      "ynchron": 5136,
      "DEN": 5137,
      "views": 5138,
      "Default": 5139,
      "Ġneeds": 5140,
      "Backend": 5141,
      "ĠString": 5142,
      "All": 5143,
      "Cal": 5144,
      "LINE": 5145,
      "NUM": 5146,
      "fit": 5147,
      "ick": 5148,
      "js": 5149,
      "ually": 5150,
      "atios": 5151,
      "enge": 5152,
      "Ġrepeat": 5153,
      "Ġindi": 5154,
      "Ġdd": 5155,
      "prepare": 5156,
      "initial": 5157,
      "spans": 5158,
      "Ġcost": 5159,
      "Ġchoices": 5160,
      "rowth": 5161,
      "filtered": 5162,
      "Ref": 5163,
      "causal": 5164,
      "ĠGPU": 5165,
      "TEN": 5166,
      "Ġprivate": 5167,
      "Color": 5168,
      "ULL": 5169,
      "Generator": 5170,
      "Async": 5171,
      "Flow": 5172,
      "Only": 5173,
      "equ": 5174,
      "ira": 5175,
      "luster": 5176,
      "oo": 5177,
      "rl": 5178,
      "rng": 5179,
      "square": 5180,
      "Ġsimilarity": 5181,
      "Ġopts": 5182,
      "progress": 5183,
      "allenge": 5184,
      "lick": 5185,
      "Ġresources": 5186,
      "setdefault": 5187,
      "tact": 5188,
      "nums": 5189,
      "Ġasset": 5190,
      "idxs": 5191,
      "compos": 5192,
      "Ġtargets": 5193,
      "TIME": 5194,
      "Args": 5195,
      "corners": 5196,
      "Ġexpanded": 5197,
      "Ġneeded": 5198,
      "Ġsignal": 5199,
      "Struct": 5200,
      "Ġauthentic": 5201,
      "month": 5202,
      "26": 5203,
      "ACK": 5204,
      "CI": 5205,
      "NE": 5206,
      "Sp": 5207,
      "dget": 5208,
      "ned": 5209,
      "è®": 5210,
      "decl": 5211,
      "Ġtp": 5212,
      "()).": 5213,
      "iso": 5214,
      "Ġconcat": 5215,
      "Ġgo": 5216,
      "Ġgamma": 5217,
      "ĠRE": 5218,
      "Ġbehavi": 5219,
      "matches": 5220,
      "bins": 5221,
      "Ġquantization": 5222,
      "Ġprocessing": 5223,
      "overlap": 5224,
      "Ġdoesn": 5225,
      "google": 5226,
      "Ġdetail": 5227,
      "mployee": 5228,
      "Ġindicat": 5229,
      ")\\": 5230,
      "Cannot": 5231,
      "_)": 5232,
      "dri": 5233,
      "pus": 5234,
      "orter": 5235,
      "Ġsche": 5236,
      "digest": 5237,
      "Ġbundle": 5238,
      "andbox": 5239,
      "Ġ_(\"": 5240,
      "Ġ'/": 5241,
      "Ġgate": 5242,
      "Ġsee": 5243,
      "lies": 5244,
      "Ġresolve": 5245,
      "aging": 5246,
      "ĠNorm": 5247,
      "ERY": 5248,
      "ĠEvent": 5249,
      "runner": 5250,
      "FIX": 5251,
      "temporal": 5252,
      "descriptor": 5253,
      "Ġindicating": 5254,
      "DS": 5255,
      "From": 5256,
      "agraph": 5257,
      "done": 5258,
      "ik": 5259,
      "sim": 5260,
      "âĶ": 5261,
      "æĪ": 5262,
      "hes": 5263,
      "Ġdenoise": 5264,
      "codes": 5265,
      "Ġbecause": 5266,
      "artition": 5267,
      "Start": 5268,
      "}.{": 5269,
      "contents": 5270,
      "Ġasyncio": 5271,
      "Ġverbose": 5272,
      "multiplier": 5273,
      "QUERY": 5274,
      "replic": 5275,
      "serializer": 5276,
      "ĠKeyError": 5277,
      "Ġfreqs": 5278,
      "Ġremaining": 5279,
      ">\",": 5280,
      "GR": 5281,
      "ever": 5282,
      "rm": 5283,
      "onnx": 5284,
      "segments": 5285,
      "artifact": 5286,
      "utc": 5287,
      "digits": 5288,
      "asarray": 5289,
      "thing": 5290,
      "Ġrhs": 5291,
      "vertices": 5292,
      "omial": 5293,
      "Ġ/=": 5294,
      "ĠMulti": 5295,
      "classifier": 5296,
      "sampled": 5297,
      "Ġpartner": 5298,
      "Ġverify": 5299,
      "Builder": 5300,
      "Ġextension": 5301,
      "ViT": 5302,
      "Ġchanged": 5303,
      "åĽŀ": 5304,
      "uardrail": 5305,
      "ãĢĤ": 5306,
      "]|": 5307,
      "bf": 5308,
      "font": 5309,
      "ogram": 5310,
      "rsqrt": 5311,
      "sale": 5312,
      "Ġ()": 5313,
      "sel": 5314,
      "ales": 5315,
      "Ġcut": 5316,
      "urrent": 5317,
      "ĠSec": 5318,
      "Ġbig": 5319,
      "entries": 5320,
      "Ġ[`": 5321,
      "qua": 5322,
      "Ġhalf": 5323,
      "Ġexact": 5324,
      "Ġbegin": 5325,
      "pickle": 5326,
      "Expression": 5327,
      "Ġquote": 5328,
      "updated": 5329,
      "ĠHTML": 5330,
      "builder": 5331,
      "vectors": 5332,
      "ĠAsset": 5333,
      "Ġabsolute": 5334,
      "lookup": 5335,
      "HER": 5336,
      "Len": 5337,
      "Mapping": 5338,
      "dat": 5339,
      "ks": 5340,
      "png": 5341,
      "rp": 5342,
      "Ġfont": 5343,
      "distribution": 5344,
      "unded": 5345,
      "umbn": 5346,
      "(\"%": 5347,
      "Ġxmax": 5348,
      "Ġclassification": 5349,
      "urls": 5350,
      "Ġjoin": 5351,
      "rength": 5352,
      "note": 5353,
      "owner": 5354,
      "Ġ{},": 5355,
      "Ġgradient": 5356,
      "ialization": 5357,
      "Command": 5358,
      "elementwise": 5359,
      "constraint": 5360,
      "constraints": 5361,
      "Helper": 5362,
      "ĠBoxList": 5363,
      "umbnail": 5364,
      ")(": 5365,
      ":\\": 5366,
      "Job": 5367,
      "`:": 5368,
      "ire": 5369,
      "deprecated": 5370,
      "Ġdeep": 5371,
      "idget": 5372,
      "ilt": 5373,
      "iling": 5374,
      "iscal": 5375,
      "argv": 5376,
      "rices": 5377,
      "ĠAdd": 5378,
      "abilities": 5379,
      "omat": 5380,
      "ĠRow": 5381,
      "Ġexit": 5382,
      "bos": 5383,
      "ĠCa": 5384,
      "okies": 5385,
      "ERS": 5386,
      "Ġcollections": 5387,
      "``,": 5388,
      "Ġcomment": 5389,
      "byte": 5390,
      "Ġroute": 5391,
      "Ġusers": 5392,
      "Ġqkv": 5393,
      "ĠTensorLike": 5394,
      "ĠExpression": 5395,
      "Ġspatial": 5396,
      "TEXT": 5397,
      "Ġaccording": 5398,
      "Ġcalls": 5399,
      "seqlens": 5400,
      "ä»¶": 5401,
      "Bytes": 5402,
      "deepcopy": 5403,
      "CharField": 5404,
      "512": 5405,
      "Ed": 5406,
      "IE": 5407,
      "fficient": 5408,
      "ied": 5409,
      "mutable": 5410,
      "sli": 5411,
      "tic": 5412,
      "}')": 5413,
      "Ġigno": 5414,
      "Ġrelated": 5415,
      "ĠSup": 5416,
      "Ġslim": 5417,
      "divide": 5418,
      "units": 5419,
      "exist": 5420,
      "Ġ(-": 5421,
      "added": 5422,
      "Ġ10000": 5423,
      "Ġholding": 5424,
      "ancel": 5425,
      "Ġexpr": 5426,
      "prediction": 5427,
      "imodal": 5428,
      "ĠDate": 5429,
      "ĠMo": 5430,
      "scribe": 5431,
      "Ġangle": 5432,
      "ONE": 5433,
      "ocker": 5434,
      "unknown": 5435,
      "}.\"": 5436,
      "Ġsympy": 5437,
      "Ġspecial": 5438,
      "projects": 5439,
      "Ġsoft": 5440,
      "(...,": 5441,
      ":%": 5442,
      "Failed": 5443,
      "Feature": 5444,
      "Modal": 5445,
      "Sh": 5446,
      "blob": 5447,
      "jp": 5448,
      "lations": 5449,
      "sses": 5450,
      "vt": 5451,
      "vllm": 5452,
      "âĢ": 5453,
      "Ġfolder": 5454,
      "Ġss": 5455,
      "Ġbel": 5456,
      "Ġbenchmark": 5457,
      "rier": 5458,
      "ĠFMP": 5459,
      "vered": 5460,
      "Ġele": 5461,
      "Ġyear": 5462,
      "foo": 5463,
      "comput": 5464,
      "Ġcols": 5465,
      "Ġcollect": 5466,
      "component": 5467,
      "Ġbuf": 5468,
      "regular": 5469,
      "ĠVector": 5470,
      "padded": 5471,
      "Ġpositional": 5472,
      "Ġframes": 5473,
      "etcher": 5474,
      "Ġdense": 5475,
      "aussian": 5476,
      "rinio": 5477,
      ");": 5478,
      "95": 5479,
      "Owner": 5480,
      "cm": 5481,
      "rstrip": 5482,
      "sor": 5483,
      "ines": 5484,
      "rex": 5485,
      "retri": 5486,
      "derable": 5487,
      "alt": 5488,
      "Ġreward": 5489,
      "router": 5490,
      "Ġpk": 5491,
      "Ġbroadcast": 5492,
      "mac": 5493,
      "converter": 5494,
      "usive": 5495,
      "ĠDocument": 5496,
      "until": 5497,
      "ĠĠĠĠĠĠĠĠĠĠĠĠĠĠĠĠĠĠĠĠĠĠ": 5498,
      "ponent": 5499,
      "Ġshapes": 5500,
      "most": 5501,
      "typ": 5502,
      "Ġspecify": 5503,
      "Ġlogical": 5504,
      "seqlen": 5505,
      "herit": 5506,
      "markdown": 5507,
      "findall": 5508,
      "ĠIDs": 5509,
      "NotFound": 5510,
      "Ġclear": 5511,
      "VERSION": 5512,
      "Ġwrapped": 5513,
      "Ġprojection": 5514,
      "roxim": 5515,
      "Ġassociated": 5516,
      "Dep": 5517,
      "DATE": 5518,
      "ccl": 5519,
      "pd": 5520,
      "pag": 5521,
      "sur": 5522,
      "tanh": 5523,
      "Ġdeprecated": 5524,
      "dian": 5525,
      "lops": 5526,
      "raise": 5527,
      "expi": 5528,
      "Ġduplic": 5529,
      "esNot": 5530,
      "versed": 5531,
      "Ġhi": 5532,
      "ĠRep": 5533,
      "Ġ204": 5534,
      "Ġexpi": 5535,
      "predictions": 5536,
      "uba": 5537,
      "Ġprepare": 5538,
      "Ġjust": 5539,
      "mooth": 5540,
      "ĠUsed": 5541,
      "basename": 5542,
      "expense": 5543,
      "Ġmatched": 5544,
      "Decode": 5545,
      "Ġtopic": 5546,
      "bottom": 5547,
      "ABC": 5548,
      "ynamo": 5549,
      "invoice": 5550,
      "POST": 5551,
      "operation": 5552,
      "average": 5553,
      "bi": 5554,
      "dm": 5555,
      "ero": 5556,
      "Ġremote": 5557,
      "ites": 5558,
      "admin": 5559,
      "integr": 5560,
      "Ġxp": 5561,
      "Ġintegers": 5562,
      "Ġresolution": 5563,
      "Condition": 5564,
      "Ġthrough": 5565,
      "Ġcookie": 5566,
      "ĠOSError": 5567,
      "egment": 5568,
      "safety": 5569,
      "acity": 5570,
      "Ġcompile": 5571,
      "Ġappend": 5572,
      "keepdims": 5573,
      "Ġacross": 5574,
      "Ġcapture": 5575,
      "Ġintersection": 5576,
      "Generic": 5577,
      "documents": 5578,
      "ĠApiOwner": 5579,
      "033": 5580,
      "Template": 5581,
      "DoesNot": 5582,
      "cf": 5583,
      "hub": 5584,
      "pb": 5585,
      "ĠST": 5586,
      "Ġairflow": 5587,
      "Ġwo": 5588,
      "resolved": 5589,
      "(\"-": 5590,
      "(\"_": 5591,
      "ĠPlease": 5592,
      "Ġcoef": 5593,
      "positive": 5594,
      "transaction": 5595,
      "website": 5596,
      "Ġinterface": 5597,
      "Arr": 5598,
      "signal": 5599,
      "media": 5600,
      "Ġmove": 5601,
      "Ġplacement": 5602,
      "echo": 5603,
      "VALID": 5604,
      "çĶ¨": 5605,
      "Ġdenoised": 5606,
      "DoesNotExist": 5607,
      "(\"\"": 5608,
      "Map": 5609,
      "Pattern": 5610,
      "ucer": 5611,
      "}/{": 5612,
      "onal": 5613,
      "Ġtile": 5614,
      "Ġrest": 5615,
      "Ġnargs": 5616,
      "ptime": 5617,
      "cogn": 5618,
      "Ġepoch": 5619,
      "\"]]": 5620,
      "Ġ200": 5621,
      "Ġexternal": 5622,
      "preter": 5623,
      "calc": 5624,
      "Ġ</": 5625,
      "ĠLog": 5626,
      "ĠUp": 5627,
      "Ġlev": 5628,
      "Ġcached": 5629,
      "tables": 5630,
      "rtual": 5631,
      "topic": 5632,
      "environment": 5633,
      "criptor": 5634,
      "experi": 5635,
      "detail": 5636,
      "Ġmaybe": 5637,
      "annotation": 5638,
      "Python": 5639,
      "Ġclose": 5640,
      ")}\")": 5641,
      "Cell": 5642,
      "MENT": 5643,
      "Policy": 5644,
      "\\-": 5645,
      "eve": 5646,
      "mk": 5647,
      "rb": 5648,
      "è§": 5649,
      "sequences": 5650,
      "enu": 5651,
      "itude": 5652,
      "Ġslug": 5653,
      "Ġsanit": 5654,
      "dius": 5655,
      "Ġdone": 5656,
      "Ġ11": 5657,
      "Ġconsole": 5658,
      "ĠFLAGS": 5659,
      "Ġboolean": 5660,
      "ĠMax": 5661,
      "__(**": 5662,
      "Ġtimezone": 5663,
      "waiter": 5664,
      "downsample": 5665,
      "Server": 5666,
      "Ġprice": 5667,
      "visor": 5668,
      "exceptions": 5669,
      "Ġauthor": 5670,
      "Memory": 5671,
      "Attribute": 5672,
      "Ġoccur": 5673,
      "LongTensor": 5674,
      ")`,": 5675,
      ")`.": 5676,
      "CESS": 5677,
      "SP": 5678,
      "cc": 5679,
      "identity": 5680,
      "tn": 5681,
      "Ġ\")": 5682,
      "Ġresize": 5683,
      "Ġrecursive": 5684,
      "cei": 5685,
      "Ġsocket": 5686,
      "assistant": 5687,
      "Ġlate": 5688,
      "Ġlora": 5689,
      "Ġwarmup": 5690,
      "cope": 5691,
      "isinstance": 5692,
      "Ġ14": 5693,
      "ssue": 5694,
      "keypoints": 5695,
      "setup": 5696,
      "ffers": 5697,
      "Ġcould": 5698,
      "clusive": 5699,
      "pie": 5700,
      "Ġbuiltin": 5701,
      "ango": 5702,
      "special": 5703,
      "Ġapplication": 5704,
      "PIPE": 5705,
      "execution": 5706,
      "Ġdecorator": 5707,
      "Ġprotocol": 5708,
      "coords": 5709,
      "compatible": 5710,
      "Ġwould": 5711,
      ")`": 5712,
      ".\\": 5713,
      ":.": 5714,
      "Handle": 5715,
      "Sup": 5716,
      "fd": 5717,
      "iverse": 5718,
      "mn": 5719,
      "pip": 5720,
      "rating": 5721,
      "äº": 5722,
      "ins": 5723,
      "insum": 5724,
      "Ġctypes": 5725,
      "ural": 5726,
      "Ġph": 5727,
      "uning": 5728,
      "unpack": 5729,
      "Ġnote": 5730,
      "resses": 5731,
      "Ġexper": 5732,
      "database": 5733,
      "ĠOther": 5734,
      "ĠModule": 5735,
      "Ġminimum": 5736,
      "Ġleg": 5737,
      "Ġless": 5738,
      "subgraph": 5739,
      "ĠEach": 5740,
      "ModuleList": 5741,
      "Ġsym": 5742,
      "REG": 5743,
      "trigger": 5744,
      "ROM": 5745,
      "definition": 5746,
      "cloud": 5747,
      "Ġstats": 5748,
      "operand": 5749,
      "sistent": 5750,
      "Executor": 5751,
      "Ġsymbols": 5752,
      "Ġpoly": 5753,
      "FORM": 5754,
      "itecture": 5755,
      "21": 5756,
      ":{": 5757,
      "<=": 5758,
      "AUT": 5759,
      "Factory": 5760,
      "VATE": 5761,
      "ka": 5762,
      "push": 5763,
      "zy": 5764,
      "}`": 5765,
      "æī": 5766,
      "atar": 5767,
      "sect": 5768,
      "sens": 5769,
      "orary": 5770,
      "leted": 5771,
      "urch": 5772,
      "ĠSE": 5773,
      "cel": 5774,
      "Ġsn": 5775,
      "Ġmd": 5776,
      "Ġdefinition": 5777,
      "ading": 5778,
      "Ġsections": 5779,
      "Ġequ": 5780,
      "Ġprofile": 5781,
      "ĠCO": 5782,
      "ĠDep": 5783,
      "ipher": 5784,
      "Expr": 5785,
      "collect": 5786,
      "ĠBo": 5787,
      "groupby": 5788,
      "Ġunknown": 5789,
      "linspace": 5790,
      "ugging": 5791,
      "Ġdocs": 5792,
      "Ġinstalled": 5793,
      "Validate": 5794,
      "ĠOrdered": 5795,
      "detach": 5796,
      "Ġproperties": 5797,
      "Ġignored": 5798,
      "1000": 5799,
      "CM": 5800,
      "FT": 5801,
      "PY": 5802,
      "Target": 5803,
      "car": 5804,
      "fq": 5805,
      "fname": 5806,
      "{{": 5807,
      "}]": 5808,
      "Ġsim": 5809,
      "dify": 5810,
      "entropy": 5811,
      "Ġrng": 5812,
      "Ġdirection": 5813,
      "icle": 5814,
      "Ġeven": 5815,
      "ĠRel": 5816,
      "Ġmedia": 5817,
      "tections": 5818,
      "spaces": 5819,
      "ĠMap": 5820,
      "say": 5821,
      "accelerator": 5822,
      "iterator": 5823,
      "Ġrope": 5824,
      "sentence": 5825,
      "Ġretry": 5826,
      "signed": 5827,
      "Ġentity": 5828,
      "firm": 5829,
      "Ġexecutor": 5830,
      "parents": 5831,
      "UND": 5832,
      "conditions": 5833,
      "sired": 5834,
      "FLOAT": 5835,
      "Level": 5836,
      "rozenset": 5837,
      "Ġhyper": 5838,
      "Ġincluding": 5839,
      "peaker": 5840,
      "></": 5841,
      "Api": 5842,
      "TS": 5843,
      "]+)": 5844,
      "augment": 5845,
      "dantic": 5846,
      "jac": 5847,
      "olo": 5848,
      "tab": 5849,
      "Ġuri": 5850,
      "ongest": 5851,
      "Ġimpl": 5852,
      "Ġ\"\":": 5853,
      "Ġce": 5854,
      "Ġremoved": 5855,
      "Ġinstr": 5856,
      "emo": 5857,
      "Ġground": 5858,
      "Ġdistributed": 5859,
      "Ġhist": 5860,
      "Ġordered": 5861,
      "Ġ224": 5862,
      "Ġnums": 5863,
      "Ġymax": 5864,
      "found": 5865,
      "pir": 5866,
      "ĠAnsible": 5867,
      "Ġwhose": 5868,
      "Ġfilepath": 5869,
      "Regex": 5870,
      "ĠGem": 5871,
      "mapped": 5872,
      "Based": 5873,
      "ĠInter": 5874,
      "ĠSearch": 5875,
      "ROOT": 5876,
      "Ġtemperature": 5877,
      "Ġinstances": 5878,
      "encoded": 5879,
      "LIP": 5880,
      "Ġchildren": 5881,
      "links": 5882,
      "Ġartifact": 5883,
      "failure": 5884,
      "pixels": 5885,
      "Ġcomputation": 5886,
      "Ġlookup": 5887,
      "Descriptor": 5888,
      "ĠWeb": 5889,
      "Ġ[{\"": 5890,
      "Ġsuccessful": 5891,
      "PRIVATE": 5892,
      "JECT": 5893,
      "86": 5894,
      "Document": 5895,
      "HW": 5896,
      "We": 5897,
      "eck": 5898,
      "flip": 5899,
      "hour": 5900,
      "px": 5901,
      "sage": 5902,
      "socket": 5903,
      "}-": 5904,
      "å®": 5905,
      "Ġquestion": 5906,
      "star": 5907,
      "standard": 5908,
      "alter": 5909,
      "arke": 5910,
      "Ġinternal": 5911,
      "Ġinverse": 5912,
      "Ġpers": 5913,
      "Ġplay": 5914,
      "else": 5915,
      "Ġ'<": 5916,
      "Ġdigest": 5917,
      "park": 5918,
      "tifi": 5919,
      "Ġresp": 5920,
      "Ġknown": 5921,
      "\"\"\"(?": 5922,
      "('-": 5923,
      "Ġlogs": 5924,
      "Ġchoice": 5925,
      "pipe": 5926,
      "ValueError": 5927,
      "combine": 5928,
      "ĠGoogle": 5929,
      "grads": 5930,
      "nearest": 5931,
      "Ġsharded": 5932,
      "private": 5933,
      "framework": 5934,
      "Ġvals": 5935,
      "ä¸º": 5936,
      "Ġmodified": 5937,
      "decimal": 5938,
      "dicate": 5939,
      "Ġpooling": 5940,
      "entryApp": 5941,
      "shards": 5942,
      "Ġproperty": 5943,
      "tolist": 5944,
      "plus": 5945,
      "]|$": 5946,
      "urchase": 5947,
      "92": 5948,
      "CRE": 5949,
      "GB": 5950,
      "IL": 5951,
      "If": 5952,
      "LS": 5953,
      "Mask": 5954,
      "Tag": 5955,
      "]*": 5956,
      "fused": 5957,
      "jango": 5958,
      "kill": 5959,
      "mix": 5960,
      "tle": 5961,
      "uctions": 5962,
      "åľ": 5963,
      "Ġattempts": 5964,
      "aten": 5965,
      "ardi": 5966,
      "anchors": 5967,
      "Ġinsert": 5968,
      "Ġsolution": 5969,
      "une": 5970,
      "andardi": 5971,
      "Ġep": 5972,
      "Ġ`{": 5973,
      "ĠDec": 5974,
      "Ġ/,": 5975,
      "Ġchart": 5976,
      "lite": 5977,
      "combin": 5978,
      "[::-": 5979,
      "Storage": 5980,
      "devices": 5981,
      "ĠEmbed": 5982,
      "hisper": 5983,
      "neighb": 5984,
      "calls": 5985,
      "Ġupdates": 5986,
      "ä¸Ń": 5987,
      "Chunk": 5988,
      "poly": 5989,
      "Ġdocuments": 5990,
      "Ġpairs": 5991,
      "Ġestimator": 5992,
      "(\",": 5993,
      ":\"": 5994,
      "Audio": 5995,
      "Dropout": 5996,
      "Pa": 5997,
      "TRA": 5998,
      "eos": 5999,
      "ftime": 6000,
      "mer": 6001,
      "¨¡": 6002,
      "æ¨¡": 6003,
      "dependencies": 6004,
      "stit": 6005,
      "Ġtol": 6006,
      "alert": 6007,
      "Ġcum": 6008,
      "Ġregex": 6009,
      "aspect": 6010,
      "Ġbs": 6011,
      "Ġconfidence": 6012,
      "boost": 6013,
      "Ġnamed": 6014,
      "actors": 6015,
      "ĠCan": 6016,
      "('/": 6017,
      "grade": 6018,
      "Ġwhat": 6019,
      "Ġquot": 6020,
      "Required": 6021,
      "Ġunion": 6022,
      "ship": 6023,
      "Ġdevices": 6024,
      "parsed": 6025,
      "Ġchecks": 6026,
      "Ġqueryset": 6027,
      "akes": 6028,
      "ansible": 6029,
      "pooling": 6030,
      "MAP": 6031,
      "ĠĠĠĠĠĠĠĠĠĠĠĠĠĠĠĠĠĠĠĠĠĠĠĠĠĠĠĠĠ": 6032,
      "canner": 6033,
      "Ġrendered": 6034,
      "ĠChat": 6035,
      "DateTime": 6036,
      "sheet": 6037,
      "ĠHttpResponse": 6038,
      "Ġscheme": 6039,
      "Ġ2048": 6040,
      ">'": 6041,
      "ample": 6042,
      "many": 6043,
      "ral": 6044,
      "tar": 6045,
      "çĽ": 6046,
      "ĠValidationError": 6047,
      "pet": 6048,
      "rogram": 6049,
      "Ġdetermin": 6050,
      "logs": 6051,
      "Ġmany": 6052,
      "LECT": 6053,
      "major": 6054,
      "Ġdisc": 6055,
      "ĠDet": 6056,
      "ĠBu": 6057,
      "([[": 6058,
      "classification": 6059,
      "Received": 6060,
      "versions": 6061,
      "curacy": 6062,
      "videos": 6063,
      "crement": 6064,
      "button": 6065,
      "Ġregistry": 6066,
      "ĠPyrex": 6067,
      "CONFIG": 6068,
      "cursively": 6069,
      "concatenate": 6070,
      "ĠGenerate": 6071,
      "Ġdenom": 6072,
      "destination": 6073,
      "elems": 6074,
      "NotFoundError": 6075,
      "experiment": 6076,
      "\"<": 6077,
      "'\"": 6078,
      ";]|$": 6079,
      "ASE": 6080,
      "Cluster": 6081,
      "NG": 6082,
      "Queue": 6083,
      "UUID": 6084,
      "rnn": 6085,
      "sources": 6086,
      "slots": 6087,
      "|;]|$": 6088,
      "Ġfs": 6089,
      "urity": 6090,
      "Ġsv": 6091,
      "Ġow": 6092,
      "uman": 6093,
      "Ġconversation": 6094,
      "posed": 6095,
      "Ġrv": 6096,
      "Ġdiv": 6097,
      "Ġhf": 6098,
      "ĠFilter": 6099,
      "))]": 6100,
      "Ġresolved": 6101,
      "ĠDAG": 6102,
      "['|\\\"|\\": 6103,
      "Ġalong": 6104,
      "Types": 6105,
      "methods": 6106,
      "extractor": 6107,
      "Ġcompiled": 6108,
      "returns": 6109,
      "Nodes": 6110,
      "Ġversions": 6111,
      "priority": 6112,
      "Named": 6113,
      "scopes": 6114,
      "DIS": 6115,
      "ASH": 6116,
      "Ġcomplete": 6117,
      "selected": 6118,
      "symbolic": 6119,
      "Ġrotary": 6120,
      "Ġdecoded": 6121,
      "ĠTaskInstance": 6122,
      "lstm": 6123,
      "})(?:['|\\\"|\\": 6124,
      "è¾ĵ": 6125,
      ")\")": 6126,
      "><": 6127,
      "Auto": 6128,
      "LP": 6129,
      "best": 6130,
      "walk": 6131,
      "Ġvertex": 6132,
      "reat": 6133,
      "Ġtrt": 6134,
      "Ġrepr": 6135,
      "Ġpp": 6136,
      "Ġmaster": 6137,
      "igher": 6138,
      "Ġ'',": 6139,
      "getenv": 6140,
      "ĠAll": 6141,
      "quot": 6142,
      "__\",": 6143,
      "Ġxy": 6144,
      "Ġevery": 6145,
      "ĠMobile": 6146,
      "home": 6147,
      "Ġtimestep": 6148,
      "trainable": 6149,
      "Ġchecksum": 6150,
      "Ġtemporal": 6151,
      "Ġtools": 6152,
      "Ġitertools": 6153,
      "mplemented": 6154,
      "Ġcalcul": 6155,
      "Matrix": 6156,
      "FLOW": 6157,
      "ĠRowParallelLinear": 6158,
      "Access": 6159,
      "Limit": 6160,
      "ymin": 6161,
      "ä½": 6162,
      "éĽ": 6163,
      "argest": 6164,
      "ĠSy": 6165,
      "ced": 6166,
      "editor": 6167,
      "uler": 6168,
      "cov": 6169,
      "Ġ'')": 6170,
      "ssl": 6171,
      "Ġguide": 6172,
      "__:": 6173,
      "Ġsegments": 6174,
      "processed": 6175,
      "ĠPri": 6176,
      "ĠĠĠĠĠĠĠĠĠĠĠĠĠĠĠĠĠĠ": 6177,
      "pick": 6178,
      "Ġconfigs": 6179,
      "Read": 6180,
      "Ġsaved": 6181,
      "subprocess": 6182,
      "oreign": 6183,
      "Ġbuilder": 6184,
      "ixt": 6185,
      "=[],": 6186,
      "Ġbackbone": 6187,
      "gestion": 6188,
      "Ġbutton": 6189,
      "Ġwindows": 6190,
      "Ġscopes": 6191,
      "ĠAttention": 6192,
      "Ġiterable": 6193,
      "multiple": 6194,
      "annotations": 6195,
      "Ġreplic": 6196,
      "WithPooling": 6197,
      "Ġprobability": 6198,
      "Ġcycle": 6199,
      "5678": 6200,
      "Ġletter": 6201,
      "éĽĨ": 6202,
      "One": 6203,
      "moment": 6204,
      "nms": 6205,
      "rs": 6206,
      "rms": 6207,
      "ratios": 6208,
      "tlen": 6209,
      "writer": 6210,
      "instr": 6211,
      "Ġfit": 6212,
      "gelu": 6213,
      "Ġshell": 6214,
      "distributed": 6215,
      "Ġbrowser": 6216,
      "Ġactions": 6217,
      "exclude": 6218,
      "exchange": 6219,
      "rant": 6220,
      "tail": 6221,
      "Ġdefaultdict": 6222,
      "ocr": 6223,
      "hood": 6224,
      "curr": 6225,
      "ĠTensorType": 6226,
      "week": 6227,
      "Ġtransformed": 6228,
      "AND": 6229,
      "Ġpytree": 6230,
      "double": 6231,
      "hostname": 6232,
      "COND": 6233,
      "expert": 6234,
      "Ġfailure": 6235,
      "manifest": 6236,
      "åħ¥": 6237,
      "antiles": 6238,
      "servation": 6239,
      "){": 6240,
      "browser": 6241,
      "edi": 6242,
      "icon": 6243,
      "imag": 6244,
      "tl": 6245,
      "åŀ": 6246,
      "æĺ": 6247,
      "inplace": 6248,
      "seek": 6249,
      "Ġchain": 6250,
      "Ġfix": 6251,
      "peech": 6252,
      "Ġinside": 6253,
      "Ġnative": 6254,
      "ĠSpec": 6255,
      "Ġpid": 6256,
      "Ġlhs": 6257,
      "ulk": 6258,
      "ulation": 6259,
      "LED": 6260,
      "Ġ'__": 6261,
      "lain": 6262,
      "think": 6263,
      "Ġdiag": 6264,
      "Ġhour": 6265,
      "Ġmemo": 6266,
      "tep": 6267,
      "ffn": 6268,
      "ĠMem": 6269,
      "ĠMAX": 6270,
      "../": 6271,
      "litellm": 6272,
      "ird": 6273,
      "filing": 6274,
      "bsocket": 6275,
      "Ġcausal": 6276,
      "Ġcontents": 6277,
      "Ġ...],": 6278,
      "CODE": 6279,
      "polate": 6280,
      "NetV": 6281,
      "Ġvectors": 6282,
      "Ġdispatch": 6283,
      "Ġgreater": 6284,
      "Completion": 6285,
      "åŀĭ": 6286,
      "Is": 6287,
      "Sec": 6288,
      "XY": 6289,
      "[^": 6290,
      "aw": 6291,
      "bil": 6292,
      "days": 6293,
      "oke": 6294,
      "é¡": 6295,
      "Ġ])": 6296,
      "income": 6297,
      "Ġtar": 6298,
      "Ġfname": 6299,
      "members": 6300,
      "Ġredirect": 6301,
      "itellm": 6302,
      "Ġpointer": 6303,
      "Ġdependencies": 6304,
      "iding": 6305,
      "loud": 6306,
      "unwrap": 6307,
      "strftime": 6308,
      "Ġdx": 6309,
      "ĠFROM": 6310,
      "uses": 6311,
      "Converter": 6312,
      "ĠPP": 6313,
      "ĠCUDA": 6314,
      "ĠMin": 6315,
      "Reference": 6316,
      "Ġtexts": 6317,
      "Ġindexes": 6318,
      "Ġimportlib": 6319,
      "TEMP": 6320,
      "ranges": 6321,
      "})\"": 6322,
      "Checkpoint": 6323,
      "visual": 6324,
      "simple": 6325,
      "bitrary": 6326,
      "Former": 6327,
      "records": 6328,
      "Ġpreds": 6329,
      "Ġplaceholder": 6330,
      "Loss": 6331,
      "pendency": 6332,
      "Ġdeployment": 6333,
      "roller": 6334,
      "ĠConfigDict": 6335,
      "ĠLocal": 6336,
      "Ġcuda": 6337,
      "Ġannotation": 6338,
      "è¡Į": 6339,
      "Reduce": 6340,
      "|;]|$)\"\"\"": 6341,
      "ixture": 6342,
      "tleneck": 6343,
      "Cho": 6344,
      "OM": 6345,
      "Row": 6346,
      "SQL": 6347,
      "Url": 6348,
      "Window": 6349,
      "airflow": 6350,
      "cial": 6351,
      "jo": 6352,
      "silu": 6353,
      "¯¹": 6354,
      "Ġzeros": 6355,
      "Ġfixed": 6356,
      "Ġpip": 6357,
      "Ġmig": 6358,
      "ĠFake": 6359,
      "initialized": 6360,
      "ĠCustom": 6361,
      "Ġloader": 6362,
      "Ġanchor": 6363,
      "trast": 6364,
      "Ġsetting": 6365,
      "pytorch": 6366,
      "Ġtuples": 6367,
      "updates": 6368,
      "Ġvars": 6369,
      "replacement": 6370,
      "Ġpercent": 6371,
      "cluded": 6372,
      "Ġtranspose": 6373,
      "strided": 6374,
      "Ġprocessor": 6375,
      "Ġuint": 6376,
      "ĠĠĠĠĠĠĠĠĠĠĠĠĠĠĠĠĠĠĠĠĠĠĠĠĠĠ": 6377,
      "Order": 6378,
      "Embeddings": 6379,
      "Ġtraceback": 6380,
      "TERN": 6381,
      "````````````````": 6382,
      "legacy": 6383,
      "ĠTemplate": 6384,
      "supports": 6385,
      "âĸĳâĸĳ": 6386,
      "HERE": 6387,
      "ĠOtherwise": 6388,
      "404": 6389,
      "AST": 6390,
      "Prompt": 6391,
      "basic": 6392,
      "fwd": 6393,
      "family": 6394,
      "oot": 6395,
      "qty": 6396,
      "site": 6397,
      "vgpu": 6398,
      "}</": 6399,
      "å°": 6400,
      "arator": 6401,
      "ĠSig": 6402,
      "ĠSource": 6403,
      "Ġpop": 6404,
      "Ġsync": 6405,
      "ass": 6406,
      "unicode": 6407,
      "Ġday": 6408,
      "tok": 6409,
      "ĠAS": 6410,
      "resp": 6411,
      "\"]),": 6412,
      "dicts": 6413,
      "Ġyaml": 6414,
      "ĠPool": 6415,
      "ĠBe": 6416,
      "placements": 6417,
      "ĠArgument": 6418,
      "Ġ40": 6419,
      "subject": 6420,
      "translate": 6421,
      "ĠExec": 6422,
      "weet": 6423,
      "Ġcap": 6424,
      "Ġregistered": 6425,
      "Ġlengths": 6426,
      "osen": 6427,
      "Local": 6428,
      "Ġĉĉĉ": 6429,
      "rules": 6430,
      "Ġdecay": 6431,
      "pkg": 6432,
      "Sample": 6433,
      "Util": 6434,
      "estimator": 6435,
      "quared": 6436,
      "Length": 6437,
      "Ġceil": 6438,
      "35": 6439,
      "98": 6440,
      "LATE": 6441,
      "Over": 6442,
      "Random": 6443,
      "Retri": 6444,
      "Scanner": 6445,
      "hip": 6446,
      "alth": 6447,
      "alty": 6448,
      "ĠScal": 6449,
      "ceed": 6450,
      "Ġpin": 6451,
      "Ġbasic": 6452,
      "Ġdy": 6453,
      "Ġcont": 6454,
      "ĠAuth": 6455,
      "endar": 6456,
      "Ġhard": 6457,
      "Ġselection": 6458,
      "('\\": 6459,
      "Ġqueries": 6460,
      "okens": 6461,
      "ventory": 6462,
      "Ġcombine": 6463,
      "splitlines": 6464,
      "compare": 6465,
      "infos": 6466,
      "archive": 6467,
      "Ġinitializer": 6468,
      "ĠdateType": 6469,
      "Ġresponses": 6470,
      "Ġregular": 6471,
      "Ġones": 6472,
      "Ġdocstring": 6473,
      "Encode": 6474,
      "Ġavoid": 6475,
      "Ġallows": 6476,
      "Strategy": 6477,
      "contains": 6478,
      "ferred": 6479,
      "Metrics": 6480,
      "LY": 6481,
      "WN": 6482,
      "batches": 6483,
      "dy": 6484,
      "ras": 6485,
      "rtype": 6486,
      "volume": 6487,
      "å½": 6488,
      "ĠError": 6489,
      "onic": 6490,
      "Ġfr": 6491,
      "Ġfmt": 6492,
      "Ġrect": 6493,
      "Ġpower": 6494,
      "conversation": 6495,
      "extension": 6496,
      "Ġconverter": 6497,
      "Ġgit": 6498,
      "Container": 6499,
      "activ": 6500,
      "Ġymin": 6501,
      "ĠOn": 6502,
      "ĠĠĠĠĠĠĠĠĠĠĠĠĠĠĠĠĠĠĠĠĠĠĠĠĠĠĠĠĠĠĠĠĠĠĠ": 6503,
      "itions": 6504,
      "weighted": 6505,
      "obs": 6506,
      "ĠUN": 6507,
      "uctor": 6508,
      "Parameters": 6509,
      "aves": 6510,
      "lert": 6511,
      "generated": 6512,
      "authentic": 6513,
      "providers": 6514,
      "InputData": 6515,
      "cells": 6516,
      "GraphModule": 6517,
      "sharding": 6518,
      "serialization": 6519,
      "Forward": 6520,
      "ĠIterator": 6521,
      "transformers": 6522,
      "grees": 6523,
      "Ġmomentum": 6524,
      "character": 6525,
      "omatically": 6526,
      "68": 6527,
      "AP": 6528,
      "aco": 6529,
      "fallback": 6530,
      "ple": 6531,
      "pct": 6532,
      "rgb": 6533,
      "uator": 6534,
      "remain": 6535,
      "oring": 6536,
      "stock": 6537,
      "leave": 6538,
      "Ġcriter": 6539,
      "Ġrecent": 6540,
      "peg": 6541,
      "hear": 6542,
      "ĠSub": 6543,
      "Ġdesired": 6544,
      "Ġmm": 6545,
      "Ġthese": 6546,
      "hase": 6547,
      "Control": 6548,
      "apper": 6549,
      "Ġproc": 6550,
      "timestep": 6551,
      "ĠMerge": 6552,
      "Exp": 6553,
      "Experiment": 6554,
      "ĠBy": 6555,
      "embedder": 6556,
      "ĠGlm": 6557,
      "builtin": 6558,
      "ools": 6559,
      "ROUP": 6560,
      "Ġpriority": 6561,
      "({'": 6562,
      "backends": 6563,
      "Ġpick": 6564,
      "Ġcalc": 6565,
      "Adam": 6566,
      "ä¸Ģä¸ª": 6567,
      "Header": 6568,
      "requirements": 6569,
      "InputDataFields": 6570,
      "(\":": 6571,
      "Ac": 6572,
      "BLOCK": 6573,
      "Custom": 6574,
      "Layout": 6575,
      "Num": 6576,
      "OS": 6577,
      "Role": 6578,
      "UB": 6579,
      "UE": 6580,
      "VL": 6581,
      "finfo": 6582,
      "ipping": 6583,
      "nest": 6584,
      "Ġemb": 6585,
      "semb": 6586,
      "stre": 6587,
      "Ġcpu": 6588,
      "Ġpast": 6589,
      "Ġswap": 6590,
      "loaded": 6591,
      "union": 6592,
      "under": 6593,
      "ulate": 6594,
      "lazy": 6595,
      "ĠTable": 6596,
      "Ġhparams": 6597,
      "Ġeffect": 6598,
      "imask": 6599,
      "ĠMe": 6600,
      "Extract": 6601,
      "ĠHow": 6602,
      "rawl": 6603,
      "facts": 6604,
      "Ġgradients": 6605,
      "Ġaccumul": 6606,
      "complete": 6607,
      "Ġboundary": 6608,
      "fraction": 6609,
      "System": 6610,
      "Protocol": 6611,
      "directional": 6612,
      "Details": 6613,
      "ĠBinConstraint": 6614,
      "ĠTensorLikeType": 6615,
      "æ¨¡åŀĭ": 6616,
      "->": 6617,
      "Dim": 6618,
      "Label": 6619,
      "Sc": 6620,
      "[(": 6621,
      "`].": 6622,
      "bstract": 6623,
      "fh": 6624,
      "lstrip": 6625,
      "zp": 6626,
      "|[\\": 6627,
      "åĩ": 6628,
      "stable": 6629,
      "Ġ\"`": 6630,
      "Ġclick": 6631,
      "Ġnest": 6632,
      "Ġmb": 6633,
      "ATCH": 6634,
      "Ġ(:": 6635,
      "pointer": 6636,
      "Ġgap": 6637,
      "profiler": 6638,
      "Connection": 6639,
      "Ġpreprocess": 6640,
      "Ġenviron": 6641,
      "Ġanchors": 6642,
      "usters": 6643,
      "hole": 6644,
      "ĠExpr": 6645,
      "workspace": 6646,
      "positional": 6647,
      "prompts": 6648,
      "Ġprimary": 6649,
      "Ġcharset": 6650,
      "FIE": 6651,
      "Computes": 6652,
      "}'.": 6653,
      "Ġbins": 6654,
      "monitor": 6655,
      "ĠServer": 6656,
      "Datetime": 6657,
      "Ġmonitor": 6658,
      "Ġreasoning": 6659,
      "æĸĩä»¶": 6660,
      "difference": 6661,
      "\\-_": 6662,
      "arket": 6663,
      "è¾ĵåħ¥": 6664,
      ")'": 6665,
      ".'": 6666,
      ">{": 6667,
      "?=": 6668,
      "DEP": 6669,
      "FP": 6670,
      "Kwargs": 6671,
      "PC": 6672,
      "Rate": 6673,
      "RAN": 6674,
      "_[": 6675,
      "big": 6676,
      "large": 6677,
      "}(?:": 6678,
      "åĢ": 6679,
      "é¢": 6680,
      "Ġart": 6681,
      "Ġvec": 6682,
      "alect": 6683,
      "Ġfrontend": 6684,
      "Ġfrequency": 6685,
      "Ġdetermine": 6686,
      "Ġmixed": 6687,
      "Ġlazy": 6688,
      "Ġissubclass": 6689,
      "contact": 6690,
      "laces": 6691,
      "ĠAction": 6692,
      "ĠDB": 6693,
      "pipeline": 6694,
      "normalization": 6695,
      "saved": 6696,
      "Ġqual": 6697,
      "Ġrouter": 6698,
      "Ġsubject": 6699,
      "Ġsubgraph": 6700,
      "Ġrequested": 6701,
      "newaxis": 6702,
      "ĠInit": 6703,
      "**/": 6704,
      "catter": 6705,
      "Ġtrainable": 6706,
      "Train": 6707,
      "cert": 6708,
      "retry": 6709,
      "which": 6710,
      "åĪĹ": 6711,
      "recv": 6712,
      "Ġagain": 6713,
      "Ġaggreg": 6714,
      "reasoning": 6715,
      "predicted": 6716,
      "Ġlevels": 6717,
      "HWC": 6718,
      "Ġplaylist": 6719,
      "é¡¹": 6720,
      "31": 6721,
      "Adapt": 6722,
      "Fin": 6723,
      "Link": 6724,
      "Match": 6725,
      "Rel": 6726,
      "vae": 6727,
      "xp": 6728,
      "åŃ": 6729,
      "reverse": 6730,
      "Ġcer": 6731,
      "Ġreach": 6732,
      "route": 6733,
      "urnal": 6734,
      "exact": 6735,
      "ados": 6736,
      "ĠAc": 6737,
      "ĠFP": 6738,
      "Ġ24": 6739,
      "boolean": 6740,
      "ĠCurrent": 6741,
      "aggregate": 6742,
      "ponential": 6743,
      "ĠNOT": 6744,
      "ĠBack": 6745,
      "iterable": 6746,
      "factors": 6747,
      "Proper": 6748,
      "Ġapproxim": 6749,
      "DataType": 6750,
      "Ġnormal": 6751,
      "Ġtransaction": 6752,
      "Ġinterpolation": 6753,
      "crets": 6754,
      "Ġformats": 6755,
      "Ġwere": 6756,
      "Ġexplicit": 6757,
      "CHW": 6758,
      "ĠPyTorch": 6759,
      "Ġconditions": 6760,
      "Ġevaluation": 6761,
      "serializers": 6762,
      "Ġrules": 6763,
      "Ġhttpx": 6764,
      "playlist": 6765,
      "Ġsince": 6766,
      "unication": 6767,
      "isoformat": 6768,
      "ĠPyrexScanner": 6769,
      "FIELD": 6770,
      "54": 6771,
      "70": 6772,
      "BBox": 6773,
      "DF": 6774,
      "Patch": 6775,
      "You": 6776,
      "cname": 6777,
      "cnt": 6778,
      "fl": 6779,
      "fw": 6780,
      "grouped": 6781,
      "pin": 6782,
      "similarity": 6783,
      "å¯¹": 6784,
      "æĿ": 6785,
      "ĠOR": 6786,
      "oriz": 6787,
      "eral": 6788,
      "ansion": 6789,
      "Ġcard": 6790,
      "Ġfuture": 6791,
      "roma": 6792,
      "roke": 6793,
      "Ġsf": 6794,
      "Ġslot": 6795,
      "Ġds": 6796,
      "Ġdri": 6797,
      "Ġway": 6798,
      "Ġwrit": 6799,
      "isnan": 6800,
      "Ġtoo": 6801,
      "ĠTarget": 6802,
      "ĠAND": 6803,
      "Ġhand": 6804,
      "ticks": 6805,
      "inese": 6806,
      "prep": 6807,
      "ĠId": 6808,
      "Ġ`\"": 6809,
      "ĠPO": 6810,
      "ĠCON": 6811,
      "lying": 6812,
      "Extra": 6813,
      "([-": 6814,
      "tokenize": 6815,
      "ĠWHERE": 6816,
      "STAN": 6817,
      "ĠEnum": 6818,
      "Ġpooled": 6819,
      "={'": 6820,
      "Ġtranslate": 6821,
      "Ġcountry": 6822,
      "cycle": 6823,
      "Series": 6824,
      "Ġarrays": 6825,
      "qualname": 6826,
      "locations": 6827,
      "Precision": 6828,
      "ASK": 6829,
      "sigmas": 6830,
      "Ġpacked": 6831,
      "overrides": 6832,
      "dividual": 6833,
      "ĠGeneric": 6834,
      "Ġcompatible": 6835,
      "Equalize": 6836,
      "MultiModal": 6837,
      "ynchronous": 6838,
      "Split": 6839,
      "Ġexpert": 6840,
      "$\",": 6841,
      "(':": 6842,
      ",))": 6843,
      "BC": 6844,
      "Bin": 6845,
      "Min": 6846,
      "OL": 6847,
      "fmt": 6848,
      "mi": 6849,
      "Ġatt": 6850,
      "Ġuntil": 6851,
      "redis": 6852,
      "Ġtransport": 6853,
      "anies": 6854,
      "leaf": 6855,
      "Ġ\"[": 6856,
      "olarize": 6857,
      "ula": 6858,
      "Ġdon": 6859,
      "argmax": 6860,
      "Ġconversion": 6861,
      "Ġconds": 6862,
      "Ġconstra": 6863,
      "verbose": 6864,
      "lias": 6865,
      "using": 6866,
      "ubic": 6867,
      "episode": 6868,
      "ĠDes": 6869,
      "Ġcovariance": 6870,
      "dates": 6871,
      "osite": 6872,
      "Ext": 6873,
      "tracer": 6874,
      "ignored": 6875,
      "formats": 6876,
      "capture": 6877,
      "ĠArray": 6878,
      "comparison": 6879,
      "subset": 6880,
      "bases": 6881,
      "Ġcompression": 6882,
      "={},": 6883,
      "Ġcodes": 6884,
      "Ġneighb": 6885,
      "COUN": 6886,
      "Ġprim": 6887,
      "Ġsigned": 6888,
      "Integration": 6889,
      "ATED": 6890,
      "Ġframework": 6891,
      "Ġcases": 6892,
      "autograd": 6893,
      "Ġextracted": 6894,
      "Ġsharding": 6895,
      "æľ¬": 6896,
      ")(?:[": 6897,
      "Ġmonth": 6898,
      "ĠTrace": 6899,
      "adaptive": 6900,
      "decorator": 6901,
      "ceiver": 6902,
      "ĠMemory": 6903,
      "'|\\\"|\\": 6904,
      ";\\": 6905,
      "=>": 6906,
      "=|>": 6907,
      "Down": 6908,
      "Place": 6909,
      "Partition": 6910,
      "aunch": 6911,
      "dnn": 6912,
      "rv": 6913,
      "uom": 6914,
      "xmin": 6915,
      "ylist": 6916,
      "|']": 6917,
      "|\"])": 6918,
      "|=|\\": 6919,
      "|<=": 6920,
      "|=>": 6921,
      "}=|\\": 6922,
      "éĩ": 6923,
      "security": 6924,
      "arter": 6925,
      "Ġna": 6926,
      "ĠSo": 6927,
      "roker": 6928,
      "Ġmargin": 6929,
      "hable": 6930,
      "Ġ13": 6931,
      "extensions": 6932,
      "Ġgrouped": 6933,
      "Ġsens": 6934,
      "','": 6935,
      "press": 6936,
      "usic": 6937,
      "ĠĠĠĠĠĠĠĠĠĠĠĠĠĠĠĠĠĠĠĠĠĠĠĠĠ": 6938,
      "ego": 6939,
      "minator": 6940,
      "ircle": 6941,
      "Ġonce": 6942,
      "blocking": 6943,
      "notification": 6944,
      "Ġtimedelta": 6945,
      "username": 6946,
      "budget": 6947,
      "ĠEX": 6948,
      "Ġnormalization": 6949,
      "crete": 6950,
      "|\\|:": 6951,
      "|\\?=": 6952,
      "Ġlineno": 6953,
      "cipe": 6954,
      "LOW": 6955,
      "topk": 6956,
      "ĠResource": 6957,
      "Ġ.]{": 6958,
      "Generation": 6959,
      "Ġpickle": 6960,
      "Ġhostname": 6961,
      "traceback": 6962,
      "VisionConfig": 6963,
      "Component": 6964,
      "åĪ°": 6965,
      "Tokenizer": 6966,
      "Ġhooks": 6967,
      "IGH": 6968,
      ")(?:'|\\\"|\\": 6969,
      "|:{": 6970,
      "|:|\\?=": 6971,
      "(\"/\")": 6972,
      "Ġdirectly": 6973,
      "CHECK": 6974,
      "})(?:[\\": 6975,
      "Ġencrypted": 6976,
      "Ġpiece": 6977,
      "emove": 6978,
      "Ġpersist": 6979,
      "bilinear": 6980,
      "\\-_\\": 6981,
      "}(?:=|>": 6982,
      "åĢ¼": 6983,
      "|']|[\\": 6984,
      "|\"]){": 6985,
      "|<=|=>": 6986,
      "}=|\\|\\|:": 6987,
      "|:|\\?=)(?:'|\\\"|\\": 6988,
      "}(?:=|>|:{": 6989,
      "|<=|=>|:|\\?=)(?:'|\\\"|\\": 6990,
      "}=|\\|\\|:|<=|=>|:|\\?=)(?:'|\\\"|\\": 6991,
      "10000": 6992,
      "FMP": 6993,
      "Hub": 6994,
      "SA": 6995,
      "Scope": 6996,
      "USER": 6997,
      "hh": 6998,
      "how": 6999,
      "oader": 7000,
      "xies": 7001,
      "Ġ^": 7002,
      "Ġir": 7003,
      "Ġcategories": 7004,
      "Ġfused": 7005,
      "mel": 7006,
      "pear": 7007,
      "Ġngram": 7008,
      "Ġpb": 7009,
      "Ġsure": 7010,
      "eli": 7011,
      "racket": 7012,
      "radius": 7013,
      "ARN": 7014,
      "gether": 7015,
      "quent": 7016,
      "ĠIM": 7017,
      "Ġboard": 7018,
      "Ġhere": 7019,
      "cessary": 7020,
      "Ġchosen": 7021,
      "Ġbyref": 7022,
      "Ġ400": 7023,
      "Ġroo": 7024,
      "achine": 7025,
      "Ġsubclass": 7026,
      "Ġqk": 7027,
      "Depth": 7028,
      "ĠParameter": 7029,
      "dfs": 7030,
      "Validator": 7031,
      "Ġinvoice": 7032,
      "checkpointing": 7033,
      "Ġoptimization": 7034,
      "Ġrequirements": 7035,
      "GELU": 7036,
      "æŀĲ": 7037,
      "cfgs": 7038,
      "çĽ®": 7039,
      "oreignKey": 7040,
      "(%": 7041,
      "=%": 7042,
      "Ag": 7043,
      "DK": 7044,
      "FN": 7045,
      "HI": 7046,
      "Literal": 7047,
      "Use": 7048,
      "USE": 7049,
      "_:": 7050,
      "flash": 7051,
      "ql": 7052,
      "rpc": 7053,
      "warmup": 7054,
      "ä¹": 7055,
      "Ġ,": 7056,
      "removed": 7057,
      "Ġreuse": 7058,
      "Ġreceived": 7059,
      "ceive": 7060,
      "Ġdescri": 7061,
      "ART": 7062,
      "Ġws": 7063,
      "Ġwav": 7064,
      "confidence": 7065,
      "coef": 7066,
      "istorical": 7067,
      "dimensions": 7068,
      "ĠRES": 7069,
      "Ġexpect": 7070,
      "Ġmedian": 7071,
      "ĠCode": 7072,
      "Ġassume": 7073,
      "([])": 7074,
      "Ġcolors": 7075,
      "ĠGit": 7076,
      "compress": 7077,
      "compiler": 7078,
      "quire": 7079,
      "rong": 7080,
      "expanded": 7081,
      "Ġcompare": 7082,
      "Ġshutil": 7083,
      "REC": 7084,
      "REQU": 7085,
      "TES": 7086,
      "Ġmatrices": 7087,
      "Ġcalling": 7088,
      "Ġquantized": 7089,
      "defined": 7090,
      "Ġadjust": 7091,
      "ĠStream": 7092,
      "sider": 7093,
      "ĠSeries": 7094,
      "æľĢ": 7095,
      "letter": 7096,
      "groundtruth": 7097,
      "levant": 7098,
      "ĠTimestamp": 7099,
      "Ġtrim": 7100,
      "Ġtyping": 7101,
      "Metric": 7102,
      "Avg": 7103,
      "ĠVariableTracker": 7104,
      "Ġsoftmax": 7105,
      "NamedTuple": 7106,
      "\"^": 7107,
      "06": 7108,
      "=['": 7109,
      "MB": 7110,
      "Mul": 7111,
      "Option": 7112,
      "Ret": 7113,
      "Sort": 7114,
      "Script": 7115,
      "TAG": 7116,
      "XX": 7117,
      "ired": 7118,
      "jax": 7119,
      "nf": 7120,
      "ring": 7121,
      "slo": 7122,
      "zure": 7123,
      "çŃ": 7124,
      "Ġes": 7125,
      "Ġcar": 7126,
      "Ġfactory": 7127,
      "utures": 7128,
      "peated": 7129,
      "heap": 7130,
      "ĠSize": 7131,
      "ĠSam": 7132,
      "digit": 7133,
      "lapping": 7134,
      "ĠTr": 7135,
      "ĠTop": 7136,
      "ĠAct": 7137,
      "agement": 7138,
      "Ġmel": 7139,
      "Ġmeasure": 7140,
      "Ġthose": 7141,
      "Ġheap": 7142,
      "ĠLinear": 7143,
      "matched": 7144,
      "Ġmade": 7145,
      "allest": 7146,
      "Could": 7147,
      "mitted": 7148,
      "ĠParse": 7149,
      "Child": 7150,
      "ĠUnicode": 7151,
      "ï¼Ī": 7152,
      "CTOR": 7153,
      "Ġmultiplier": 7154,
      "commands": 7155,
      "ADD": 7156,
      "Ġmetavar": 7157,
      "sdp": 7158,
      "cpus": 7159,
      "Ġevaluate": 7160,
      "cumsum": 7161,
      "Scale": 7162,
      "Ġpairwise": 7163,
      "Execution": 7164,
      "Ġcandidates": 7165,
      "ataloader": 7166,
      "Ġcleaned": 7167,
      "Estimator": 7168,
      "Signature": 7169,
      "Ġpkg": 7170,
      ".\"]": 7171,
      "37": 7172,
      "EL": 7173,
      "Segment": 7174,
      "Work": 7175,
      "bus": 7176,
      "brid": 7177,
      "java": 7178,
      "mu": 7179,
      "mtime": 7180,
      "menu": 7181,
      "purchase": 7182,
      "tc": 7183,
      "writ": 7184,
      "rename": 7185,
      "ste": 7186,
      "alog": 7187,
      "lear": 7188,
      "Ġrebuild": 7189,
      "heel": 7190,
      "Ġns": 7191,
      "Ġsw": 7192,
      "Ġsquare": 7193,
      "chart": 7194,
      "Ġmime": 7195,
      "entity": 7196,
      "ulative": 7197,
      "ORTED": 7198,
      "console": 7199,
      "isma": 7200,
      "thumbnail": 7201,
      "ĠForm": 7202,
      "Ġkb": 7203,
      "statement": 7204,
      "timedelta": 7205,
      "ĠOb": 7206,
      "ĠMonitor": 7207,
      "erson": 7208,
      "ĠLlama": 7209,
      "ĠNO": 7210,
      "Ġalgo": 7211,
      "without": 7212,
      "Ġ{}).": 7213,
      "Ġweighted": 7214,
      "Proxy": 7215,
      "DED": 7216,
      "Ġclone": 7217,
      "wav": 7218,
      "arkdown": 7219,
      "credentials": 7220,
      "Unable": 7221,
      "Ġpyds": 7222,
      "COM": 7223,
      "oleans": 7224,
      "super": 7225,
      "ĠProcess": 7226,
      "Ġadv": 7227,
      "Ġdepths": 7228,
      "cursor": 7229,
      "Comparison": 7230,
      "Ġpermute": 7231,
      "Ġdenylist": 7232,
      "THON": 7233,
      "Byte": 7234,
      "Ġcomputed": 7235,
      "Ġflattened": 7236,
      "'''": 7237,
      "FILES": 7238,
      "Ġetc": 7239,
      "candidates": 7240,
      "andardize": 7241,
      "ĠExprNodes": 7242,
      "\"'": 7243,
      "'<": 7244,
      "*\\": 7245,
      "CPU": 7246,
      "GROUP": 7247,
      "KV": 7248,
      "ULE": 7249,
      "aps": 7250,
      "categories": 7251,
      "mut": 7252,
      "xt": 7253,
      "Ġescape": 7254,
      "Ġattachment": 7255,
      "recursive": 7256,
      "Ġtakes": 7257,
      "arx": 7258,
      "ann": 7259,
      "Ġnone": 7260,
      "raps": 7261,
      "upsample": 7262,
      "ĠTree": 7263,
      "Ġrd": 7264,
      "Ġsto": 7265,
      "ĠRay": 7266,
      "adding": 7267,
      "opinfo": 7268,
      "previous": 7269,
      "ĠIS": 7270,
      "placeholder": 7271,
      "ONSE": 7272,
      "logprobs": 7273,
      "```": 7274,
      "subtract": 7275,
      "Ġstarts": 7276,
      "Ġcompiler": 7277,
      "Ġaddr": 7278,
      "Ġquantity": 7279,
      "executable": 7280,
      "Ġsigmoid": 7281,
      "ï¼ī": 7282,
      "depths": 7283,
      "conditioning": 7284,
      "9999": 7285,
      "ublished": 7286,
      "Ġhandles": 7287,
      "limiter": 7288,
      "middle": 7289,
      "Ġdecorated": 7290,
      "rotary": 7291,
      "tzinfo": 7292,
      "ĠHTTPException": 7293,
      "tenant": 7294,
      "HEAD": 7295,
      "12345678": 7296,
      "Entry": 7297,
      "Summary": 7298,
      "ĠNVML": 7299,
      "Ġbehavior": 7300,
      "BytesIO": 7301,
      "itespace": 7302,
      "ĠUpdate": 7303,
      "è§£": 7304,
      "ĠMaximum": 7305,
      "TEMPLATE": 7306,
      "Scans": 7307,
      "AY": 7308,
      "AWS": 7309,
      "BN": 7310,
      "Body": 7311,
      "Cur": 7312,
      "Line": 7313,
      "Mult": 7314,
      "Merge": 7315,
      "MESS": 7316,
      "Ren": 7317,
      "_%": 7318,
      "cancel": 7319,
      "gi": 7320,
      "gon": 7321,
      "hr": 7322,
      "margin": 7323,
      "motion": 7324,
      "qk": 7325,
      "xmax": 7326,
      "}_{": 7327,
      "~~": 7328,
      "redirect": 7329,
      "detections": 7330,
      "enet": 7331,
      "ancial": 7332,
      "Ġffn": 7333,
      "Ġreset": 7334,
      "Ġrepository": 7335,
      "Ġindividual": 7336,
      "ĠSH": 7337,
      "Ġpl": 7338,
      "Ġpow": 7339,
      "Ġlitellm": 7340,
      "adam": 7341,
      "cover": 7342,
      "lav": 7343,
      "Ġrc": 7344,
      "Ġrl": 7345,
      "Ġresnet": 7346,
      "ĠRed": 7347,
      "Ġ|=": 7348,
      "timesteps": 7349,
      "Ġloaded": 7350,
      "Ġprevent": 7351,
      "')),": 7352,
      "ĠNo": 7353,
      "ynomial": 7354,
      "Ġunicode": 7355,
      "rawler": 7356,
      "Ġcurrently": 7357,
      "need": 7358,
      "TIVE": 7359,
      "LOC": 7360,
      "lossal": 7361,
      "abspath": 7362,
      "Attr": 7363,
      "Ġfilenames": 7364,
      "Keys": 7365,
      "cription": 7366,
      "Ġstructured": 7367,
      "ĠBaseModelOutput": 7368,
      "Ġreduced": 7369,
      "ĠNotes": 7370,
      "ĠNotRequired": 7371,
      "Temp": 7372,
      "detector": 7373,
      "Ġdistances": 7374,
      "levels": 7375,
      "Ġstripped": 7376,
      "separator": 7377,
      "Ġsql": 7378,
      "Pipeline": 7379,
      "Ġvisual": 7380,
      "RegexBased": 7381,
      "Ġconstraints": 7382,
      "RegexBasedDetector": 7383,
      "42": 7384,
      "500": 7385,
      "OB": 7386,
      "On": 7387,
      "Optimizer": 7388,
      "REP": 7389,
      "RFLOW": 7390,
      "]},": 7391,
      "`)": 7392,
      "await": 7393,
      "finite": 7394,
      "mutation": 7395,
      "patched": 7396,
      "ru": 7397,
      "sr": 7398,
      "solution": 7399,
      "swap": 7400,
      "yield": 7401,
      "zA": 7402,
      "relation": 7403,
      "related": 7404,
      "ordered": 7405,
      "Ġts": 7406,
      "anchor": 7407,
      "learn": 7408,
      "Ġcat": 7409,
      "Ġreversed": 7410,
      "ĠShape": 7411,
      "Ġdev": 7412,
      "Ġbi": 7413,
      "coo": 7414,
      "istance": 7415,
      "isdir": 7416,
      "viden": 7417,
      "pooled": 7418,
      "__\")": 7419,
      "Ġparsing": 7420,
      "ifted": 7421,
      "Ġ`[": 7422,
      "ĠClient": 7423,
      "calculate": 7424,
      "Ġitr": 7425,
      "INTER": 7426,
      "acing": 7427,
      "ĠHel": 7428,
      "STM": 7429,
      "STAT": 7430,
      "Ġendpoints": 7431,
      "Ġgroupby": 7432,
      "]]]": 7433,
      "Ġteams": 7434,
      "DEF": 7435,
      "RES": 7436,
      ".\"},": 7437,
      "Ġelementwise": 7438,
      "Ġpriors": 7439,
      "ASS": 7440,
      "Ġiterator": 7441,
      "Ġlocale": 7442,
      "Ġproviders": 7443,
      "LIST": 7444,
      "istration": 7445,
      "nonzero": 7446,
      "escaped": 7447,
      "jobs": 7448,
      "Ġchanges": 7449,
      "Ġdecimal": 7450,
      "Ġalignment": 7451,
      "Ġtermin": 7452,
      "Items": 7453,
      "threads": 7454,
      "deployment": 7455,
      "skill": 7456,
      "Ġappear": 7457,
      "ĠAlso": 7458,
      "Ġassigned": 7459,
      "unctools": 7460,
      "Associ": 7461,
      "hyperparams": 7462,
      "ĠCache": 7463,
      "computed": 7464,
      "Web": 7465,
      "'}": 7466,
      "/\"": 7467,
      "APP": 7468,
      "Cross": 7469,
      "Db": 7470,
      "Face": 7471,
      "KEN": 7472,
      "Please": 7473,
      "RY": 7474,
      "So": 7475,
      "TF": 7476,
      "[{": 7477,
      "break": 7478,
      "black": 7479,
      "each": 7480,
      "iloc": 7481,
      "nable": 7482,
      "payment": 7483,
      "ymax": 7484,
      "athe": 7485,
      "Ġremo": 7486,
      "ĠSp": 7487,
      "ĠStop": 7488,
      "Ġptr": 7489,
      "Ġdelay": 7490,
      "izers": 7491,
      "AME": 7492,
      "coeff": 7493,
      "ĠTh": 7494,
      "prog": 7495,
      "Ġstem": 7496,
      "Ġexperiment": 7497,
      "Ġexponent": 7498,
      "ĠCPU": 7499,
      "gray": 7500,
      "ĠMetri": 7501,
      "')[": 7502,
      "ĠReg": 7503,
      "Ġouter": 7504,
      "']]": 7505,
      "comments": 7506,
      "modified": 7507,
      "ĠGiven": 7508,
      "ious": 7509,
      "101": 7510,
      "Ġtokenize": 7511,
      "iteLLM": 7512,
      "convolution": 7513,
      "systring": 7514,
      "interface": 7515,
      "weak": 7516,
      "Select": 7517,
      "download": 7518,
      "matching": 7519,
      "ĠDef": 7520,
      "seqs": 7521,
      "serialized": 7522,
      "COMM": 7523,
      "Ġattentions": 7524,
      "ĠĠĠĠĠĠĠĠĠĠĠĠĠĠĠĠĠĠĠĠĠĠĠĠĠĠĠĠĠĠĠĠĠĠĠĠ": 7525,
      "localhost": 7526,
      "completed": 7527,
      "Ġreplaced": 7528,
      "expressions": 7529,
      "istral": 7530,
      "}:{": 7531,
      "Ġdirs": 7532,
      "detect": 7533,
      "atalog": 7534,
      "Decor": 7535,
      "URCE": 7536,
      "Ġprovides": 7537,
      "Boolean": 7538,
      "integrations": 7539,
      "ĠEmbedding": 7540,
      "ExperimentConfig": 7541,
      "COUNT": 7542,
      "elihood": 7543,
      "arxiv": 7544,
      "è§£æŀĲ": 7545,
      "(__": 7546,
      "Alias": 7547,
      "Be": 7548,
      "Category": 7549,
      "Issue": 7550,
      "LAN": 7551,
      "Page": 7552,
      "duplic": 7553,
      "dashboard": 7554,
      "docker": 7555,
      "ih": 7556,
      "snapshot": 7557,
      "vas": 7558,
      "¦Ĥ": 7559,
      "å¼": 7560,
      "å¾": 7561,
      "Ġidentity": 7562,
      "Ġcent": 7563,
      "Ġfrozenset": 7564,
      "Ġrelation": 7565,
      "Ġpt": 7566,
      "Ġpag": 7567,
      "Ġdescript": 7568,
      "Ġsched": 7569,
      "asis": 7570,
      "Ġ\"\"\",": 7571,
      "covered": 7572,
      "arger": 7573,
      "\")[": 7574,
      "ĠAccess": 7575,
      "ĠRO": 7576,
      "ĠRate": 7577,
      "\"]},": 7578,
      "configuration": 7579,
      "literal": 7580,
      "Values": 7581,
      "portion": 7582,
      "fixed": 7583,
      "Ġ%(": 7584,
      "TypeError": 7585,
      "notation": 7586,
      "iterations": 7587,
      "illise": 7588,
      "forb": 7589,
      "Ġstartup": 7590,
      "latents": 7591,
      "]]):": 7592,
      "nost": 7593,
      "DELE": 7594,
      "ategorical": 7595,
      "avor": 7596,
      "Ġintersect": 7597,
      "refs": 7598,
      "Ġcreation": 7599,
      "ä¸į": 7600,
      "Ġsplits": 7601,
      "locals": 7602,
      "ĠĠĠĠĠĠĠĠĠĠĠĠĠĠĠĠĠĠĠĠĠĠĠĠĠĠĠĠĠĠ": 7603,
      "Ġtables": 7604,
      "pages": 7605,
      "udit": 7606,
      "freqs": 7607,
      "Buffer": 7608,
      "windows": 7609,
      "PPORTED": 7610,
      "ertex": 7611,
      "TOKEN": 7612,
      "Ġ\"\").": 7613,
      "Arguments": 7614,
      "Symb": 7615,
      "Causal": 7616,
      "IGN": 7617,
      "Ġcompatibility": 7618,
      "ĠTransformer": 7619,
      "æķ°æį®éĽĨ": 7620,
      "Edge": 7621,
      "retries": 7622,
      "Ġsanitized": 7623,
      "Extension": 7624,
      "athered": 7625,
      "\"`": 7626,
      "(',": 7627,
      "Aws": 7628,
      "Gen": 7629,
      "MI": 7630,
      "NS": 7631,
      "NHWC": 7632,
      "PR": 7633,
      "Post": 7634,
      "Payload": 7635,
      "]\",": 7636,
      "cd": 7637,
      "future": 7638,
      "gres": 7639,
      "ilo": 7640,
      "lers": 7641,
      "past": 7642,
      "pending": 7643,
      "æı": 7644,
      "çī": 7645,
      "atype": 7646,
      "alance": 7647,
      "arp": 7648,
      "Ġinherit": 7649,
      "ros": 7650,
      "Ġpush": 7651,
      "dilations": 7652,
      "ravel": 7653,
      "Ġaugment": 7654,
      "Ġ(?": 7655,
      "terms": 7656,
      "Ġ[_": 7657,
      "residual": 7658,
      "lik": 7659,
      "Ġparagraph": 7660,
      "formatted": 7661,
      "Ġraised": 7662,
      "ĠOver": 7663,
      "ĠOAuth": 7664,
      "ĠMask": 7665,
      "Release": 7666,
      "Ġcursor": 7667,
      "ĠGot": 7668,
      "sumer": 7669,
      "buffers": 7670,
      "Program": 7671,
      "loading": 7672,
      "avatar": 7673,
      "quantity": 7674,
      "Ġwebsite": 7675,
      "production": 7676,
      "Ġprojects": 7677,
      "Ġcreator": 7678,
      "Ġhapp": 7679,
      "Ġserialization": 7680,
      "dummy": 7681,
      "Ġdocumentation": 7682,
      "documentation": 7683,
      "ĠOpenAI": 7684,
      "Ġpredictor": 7685,
      "frac": 7686,
      "Ġdetect": 7687,
      "click": 7688,
      "FormatError": 7689,
      "è¯·": 7690,
      "Iteration": 7691,
      "Rotate": 7692,
      "replicas": 7693,
      "DecodeError": 7694,
      "ĠMapped": 7695,
      "æĺ¯": 7696,
      "Properties": 7697,
      "58": 7698,
      "HG": 7699,
      "Sensor": 7700,
      "Top": 7701,
      "Visit": 7702,
      "Wa": 7703,
      "amazon": 7704,
      "benchmark": 7705,
      "batched": 7706,
      "erest": 7707,
      "employee": 7708,
      "ier": 7709,
      "lue": 7710,
      "mixed": 7711,
      "oise": 7712,
      "pub": 7713,
      "pull": 7714,
      "slot": 7715,
      "vm": 7716,
      "incident": 7717,
      "repository": 7718,
      "selector": 7719,
      "Ġtim": 7720,
      "Ġtail": 7721,
      "algorithm": 7722,
      "letion": 7723,
      "Ġflip": 7724,
      "Ġpur": 7725,
      "Ġpending": 7726,
      "Ġsock": 7727,
      "cho": 7728,
      "ully": 7729,
      "confirm": 7730,
      "Ġsen": 7731,
      "prop": 7732,
      "Ġstrength": 7733,
      "denoise": 7734,
      "Ġresized": 7735,
      "Ġexe": 7736,
      "Ġprocesses": 7737,
      "Ġnumer": 7738,
      "ĠPRO": 7739,
      "ĠCal": 7740,
      "ĠMLP": 7741,
      "ocast": 7742,
      "collections": 7743,
      "comb": 7744,
      "accumul": 7745,
      "ĠGPT": 7746,
      "subscription": 7747,
      "Ġ{}\".": 7748,
      "Ġstatement": 7749,
      "Ġinitialize": 7750,
      "Ġblocksize": 7751,
      "nections": 7752,
      "Ġdouble": 7753,
      "sumed": 7754,
      "ĠParallel": 7755,
      "apsed": 7756,
      "COL": 7757,
      "Ġprior": 7758,
      "Trace": 7759,
      "ĠStat": 7760,
      "Inputs": 7761,
      "Creates": 7762,
      "blank": 7763,
      "aux": 7764,
      "coordin": 7765,
      "Regular": 7766,
      "VICE": 7767,
      "wareDatetime": 7768,
      ".*?": 7769,
      "Ġoverrides": 7770,
      "PreTrainedConfig": 7771,
      "Ġauthentication": 7772,
      "Ġlegacy": 7773,
      "journal": 7774,
      "semble": 7775,
      "Association": 7776,
      "(['": 7777,
      "GD": 7778,
      "GG": 7779,
      "Many": 7780,
      "Off": 7781,
      "Solarize": 7782,
      "Tuning": 7783,
      "cash": 7784,
      "hint": 7785,
      "jection": 7786,
      "tics": 7787,
      "ä¿": 7788,
      "Ġimag": 7789,
      "ĠSS": 7790,
      "ĠSimple": 7791,
      "ĠSession": 7792,
      "Ġplease": 7793,
      "Ġscatter": 7794,
      "Ġmis": 7795,
      "ump": 7796,
      "Ġlongest": 7797,
      "ARD": 7798,
      "typed": 7799,
      "figure": 7800,
      "Ġdivisor": 7801,
      "props": 7802,
      "codec": 7803,
      "Ġthree": 7804,
      "Ġuseful": 7805,
      "ĠCS": 7806,
      "ĠRedis": 7807,
      "ĠReceived": 7808,
      "Ġanother": 7809,
      "Ġwhole": 7810,
      "']._": 7811,
      "ĠLe": 7812,
      "([^": 7813,
      "Ġobtain": 7814,
      "aderboard": 7815,
      "Ġcurve": 7816,
      "compiled": 7817,
      "sharded": 7818,
      "Ġcontexts": 7819,
      "catboost": 7820,
      "means": 7821,
      "Delete": 7822,
      "projector": 7823,
      "Ġglobals": 7824,
      "ULTI": 7825,
      "ï¼ļ": 7826,
      "Ġadj": 7827,
      "Ġstatistics": 7828,
      "NAMES": 7829,
      "999": 7830,
      "AIL": 7831,
      "ITH": 7832,
      "Ġmiddle": 7833,
      "Processing": 7834,
      "shake": 7835,
      "greater": 7836,
      "mounts": 7837,
      "sky": 7838,
      "ĠDictionary": 7839,
      "Ġpermissions": 7840,
      "OpenAI": 7841,
      "Ġdump": 7842,
      "DeviceGet": 7843,
      "Ġconstructor": 7844,
      "PreTrainedModel": 7845,
      "Ġlatest": 7846,
      "åľ¨": 7847,
      "orizont": 7848,
      "/%": 7849,
      "CAS": 7850,
      "Dense": 7851,
      "Flag": 7852,
      "Pointer": 7853,
      "RT": 7854,
      "Tri": 7855,
      "Word": 7856,
      "bad": 7857,
      "bill": 7858,
      "dynamo": 7859,
      "hw": 7860,
      "oauth": 7861,
      "pivot": 7862,
      "tb": 7863,
      "}([": 7864,
      "}-{": 7865,
      "æ¡": 7866,
      "Ġlock": 7867,
      "Ġextend": 7868,
      "ĶåĽŀ": 7869,
      "ately": 7870,
      "measure": 7871,
      "health": 7872,
      "Ġnm": 7873,
      "ĠSto": 7874,
      "Ġput": 7875,
      "Ġplan": 7876,
      "Ġour": 7877,
      "Ġms": 7878,
      "Ġmul": 7879,
      "Ġbg": 7880,
      "Ġ(%": 7881,
      "ARG": 7882,
      "Ġwell": 7883,
      "ĠAd": 7884,
      "resnet": 7885,
      "Ġrgb": 7886,
      "Ġguard": 7887,
      "Ġguardrail": 7888,
      "Ġ{{": 7889,
      "Ġsecurity": 7890,
      "processes": 7891,
      "ĠFast": 7892,
      "lips": 7893,
      "\"]))": 7894,
      "Ġ```": 7895,
      "serving": 7896,
      "Ġcoeff": 7897,
      "Ġcookies": 7898,
      "ipy": 7899,
      "ipient": 7900,
      "ĠMO": 7901,
      "ĠLayout": 7902,
      "ports": 7903,
      "Ġobserver": 7904,
      "ĠHe": 7905,
      "Ġtracer": 7906,
      "Ġbuilt": 7907,
      "explo": 7908,
      "Ġmaps": 7909,
      "Resource": 7910,
      "Ġapplic": 7911,
      "tril": 7912,
      "returncode": 7913,
      "docstring": 7914,
      "pendent": 7915,
      "Unique": 7916,
      "Ġ80": 7917,
      "presents": 7918,
      "Ġnecessary": 7919,
      "templates": 7920,
      "Ġparents": 7921,
      "constants": 7922,
      "stribute": 7923,
      "Ġcompleted": 7924,
      "Ġalphabet": 7925,
      "Ġproduce": 7926,
      "Timestamp": 7927,
      "Ġmarker": 7928,
      "Ġclosure": 7929,
      "Ġterms": 7930,
      "Dispatch": 7931,
      "Classification": 7932,
      "è¿ĶåĽŀ": 7933,
      "ç»ĵ": 7934,
      "Ġblank": 7935,
      "----------------": 7936,
      "Ġautomatically": 7937,
      "BYTES": 7938,
      "åº¦": 7939,
      "Calculate": 7940,
      "Ġbelow": 7941,
      "Ġepisode": 7942,
      "ĠArguments": 7943,
      "**/*.": 7944,
      "é¡¹çĽ®": 7945,
      "illiseconds": 7946,
      ")',": 7947,
      ".%": 7948,
      ":]:": 7949,
      "<|": 7950,
      "Jit": 7951,
      "Mon": 7952,
      "Monitor": 7953,
      "Range": 7954,
      "`\"\"\"": 7955,
      "bian": 7956,
      "mantic": 7957,
      "ç´": 7958,
      "ĠQu": 7959,
      "indic": 7960,
      "seen": 7961,
      "derer": 7962,
      "leaves": 7963,
      "ĠSw": 7964,
      "rogate": 7965,
      "Ġps": 7966,
      "Ġdeserialize": 7967,
      "Ġsat": 7968,
      "Ġocr": 7969,
      "unflatten": 7970,
      "expect": 7971,
      "Ġwriter": 7972,
      "than": 7973,
      "Ġconstraint": 7974,
      "ĠAmazon": 7975,
      "pars": 7976,
      "booleans": 7977,
      "Ġprobs": 7978,
      "activity": 7979,
      "ĠCre": 7980,
      "ĠMake": 7981,
      "floating": 7982,
      "alizer": 7983,
      "aryEmbedding": 7984,
      "undled": 7985,
      "house": 7986,
      "hiddens": 7987,
      "placement": 7988,
      "triple": 7989,
      "cursion": 7990,
      "Ġareas": 7991,
      "Ġmak": 7992,
      "angular": 7993,
      "ĠExpected": 7994,
      ".\".": 7995,
      "127": 7996,
      "Ġoperators": 7997,
      "Self": 7998,
      "generic": 7999,
      "boto": 8000,
      "Ġ''.": 8001,
      "temperature": 8002,
      "Statement": 8003,
      "udge": 8004,
      "Events": 8005,
      "Ġaround": 8006,
      "when": 8007,
      "Ġsentence": 8008,
      "replay": 8009,
      "ĠChar": 8010,
      "Ġcoordinate": 8011,
      "æľī": 8012,
      "æłĩ": 8013,
      "Ġdetector": 8014,
      "âĸĪâĸĪâĸĪ": 8015,
      "ĠIntrinio": 8016,
      "Ġcosine": 8017,
      "ĠDagRun": 8018,
      "Grad": 8019,
      "Ġpieces": 8020,
      "PREFIX": 8021,
      "TIMEOUT": 8022,
      "Ġsnuba": 8023,
      "experimental": 8024,
      "ĠMobileViT": 8025,
      ")+": 8026,
      "-\\": 8027,
      "38": 8028,
      "Can": 8029,
      "Cast": 8030,
      "Fixture": 8031,
      "Lear": 8032,
      "Ne": 8033,
      "NCHW": 8034,
      "Usage": 8035,
      "bw": 8036,
      "fol": 8037,
      "gpus": 8038,
      "ially": 8039,
      "mx": 8040,
      "rations": 8041,
      "should": 8042,
      "{}": 8043,
      "éĹ": 8044,
      "ĠValid": 8045,
      "inst": 8046,
      "into": 8047,
      "inov": 8048,
      "seg": 8049,
      "strap": 8050,
      "Ġcsv": 8051,
      "Ġfamily": 8052,
      "metry": 8053,
      "ĠShard": 8054,
      "Ġdegrees": 8055,
      "Ġsli": 8056,
      "Ġsix": 8057,
      "asing": 8058,
      "ram": 8059,
      "Ġbad": 8060,
      "igge": 8061,
      "unsupported": 8062,
      "otstrap": 8063,
      "Ġ':": 8064,
      "Ġgpt": 8065,
      "tick": 8066,
      "ticket": 8067,
      "Ġemployee": 8068,
      "lir": 8069,
      "Ġ28": 8070,
      "ĠPix": 8071,
      "Ġlosses": 8072,
      "Ġhex": 8073,
      "inductor": 8074,
      "Ġsupp": 8075,
      "[:]": 8076,
      "accept": 8077,
      "compressed": 8078,
      "Ġinitialization": 8079,
      "Ġends": 8080,
      "uggestion": 8081,
      "Ġmaint": 8082,
      "needed": 8083,
      "ĠContent": 8084,
      "keepdim": 8085,
      "quantization": 8086,
      "Analy": 8087,
      "ĠResNet": 8088,
      "Ġuuid": 8089,
      "Translator": 8090,
      "Ġtriton": 8091,
      "Detr": 8092,
      "Ġrefresh": 8093,
      "Ġapplying": 8094,
      "Application": 8095,
      "ĠNotification": 8096,
      "ĠEnvironment": 8097,
      "Ġlowercase": 8098,
      "192": 8099,
      "Ġvirtual": 8100,
      "Ġpoll": 8101,
      "Ġdetected": 8102,
      "Ġcython": 8103,
      "Ġfragment": 8104,
      "Ġarchive": 8105,
      "Activation": 8106,
      "Ġindicates": 8107,
      "Ġpruned": 8108,
      "Ġlstm": 8109,
      "æŀľ": 8110,
      "ĠClassVar": 8111,
      "ragged": 8112,
      "ĠSchemaField": 8113,
      "histogram": 8114,
      "bosity": 8115,
      "mkdir": 8116,
      "ĠMerged": 8117,
      "howto": 8118,
      "REQUEST": 8119,
      "AF": 8120,
      "BER": 8121,
      "DD": 8122,
      "Fail": 8123,
      "Fake": 8124,
      "OF": 8125,
      "Point": 8126,
      "Su": 8127,
      "ached": 8128,
      "guide": 8129,
      "ngram": 8130,
      "nccl": 8131,
      "qs": 8132,
      "xff": 8133,
      "ycle": 8134,
      "åĮ": 8135,
      "æĹ": 8136,
      "Ġattempt": 8137,
      "atures": 8138,
      "describe": 8139,
      "stand": 8140,
      "erred": 8141,
      "also": 8142,
      "utility": 8143,
      "Ġnvml": 8144,
      "Ġnumel": 8145,
      "ĠSh": 8146,
      "ĠSentryApp": 8147,
      "rock": 8148,
      "Ġsol": 8149,
      "Ġspeed": 8150,
      "lfile": 8151,
      "Ġborder": 8152,
      "Ġaffect": 8153,
      "Ġlargest": 8154,
      "LError": 8155,
      "ORD": 8156,
      "contri": 8157,
      "ĠFetcher": 8158,
      "Ġstar": 8159,
      "Ġ21": 8160,
      "ĠIO": 8161,
      "jected": 8162,
      "Ġpredicate": 8163,
      "Ġkeypoints": 8164,
      "agged": 8165,
      "ĠReference": 8166,
      "validated": 8167,
      "Ġsets": 8168,
      "renti": 8169,
      "INTE": 8170,
      "Ġunits": 8171,
      "Ġunwrapped": 8172,
      "Ġcurrency": 8173,
      "='',": 8174,
      "mlink": 8175,
      "ĠWeight": 8176,
      "Ġbases": 8177,
      "Ġinitialized": 8178,
      "ropri": 8179,
      "Ġruns": 8180,
      "Ġ500": 8181,
      "Arg": 8182,
      "Ġpads": 8183,
      "Ġwebsocket": 8184,
      "netloc": 8185,
      "ongo": 8186,
      "ANS": 8187,
      "flows": 8188,
      "Ġvisitor": 8189,
      "Ġfinished": 8190,
      "Ġcells": 8191,
      "Ġdownsample": 8192,
      "Team": 8193,
      "CACHE": 8194,
      "assets": 8195,
      "Sym": 8196,
      "afka": 8197,
      "Decay": 8198,
      "iased": 8199,
      "åĲİ": 8200,
      "Ġprune": 8201,
      "DagRun": 8202,
      "richment": 8203,
      "ScalarType": 8204,
      "è¡¨": 8205,
      "ĠDiscord": 8206,
      "VARCHAR": 8207,
      "Position": 8208,
      "RotaryEmbedding": 8209,
      "regularizer": 8210,
      "moothing": 8211,
      "ĠGemm": 8212,
      "AvgPool": 8213,
      ")*": 8214,
      "08": 8215,
      "Callback": 8216,
      "FC": 8217,
      "Json": 8218,
      "Non": 8219,
      "_\"": 8220,
      "ags": 8221,
      "cn": 8222,
      "dw": 8223,
      "fun": 8224,
      "ipe": 8225,
      "rf": 8226,
      "sock": 8227,
      "åį": 8228,
      "éĻ": 8229,
      "Ġedit": 8230,
      "Ġfc": 8231,
      "Ġface": 8232,
      "Ġflops": 8233,
      "utdown": 8234,
      "Ġredis": 8235,
      "Ġsite": 8236,
      "Ġsnapshot": 8237,
      "ulary": 8238,
      "Ġwalk": 8239,
      "mps": 8240,
      "emote": 8241,
      "Ġgpu": 8242,
      "livery": 8243,
      "=\"%": 8244,
      "Ġrespect": 8245,
      "Console": 8246,
      "opy": 8247,
      "Ġrag": 8248,
      "modeling": 8249,
      "ĠPos": 8250,
      "ĠRelease": 8251,
      "ĠThese": 8252,
      "ĠLO": 8253,
      "Ġfloating": 8254,
      "Ġobs": 8255,
      "Ġ48": 8256,
      "submodule": 8257,
      "Ġtraverse": 8258,
      "Ġsubset": 8259,
      "Ġgeneric": 8260,
      "triton": 8261,
      "Ġcai": 8262,
      "Arn": 8263,
      "Artifact": 8264,
      "Ġ...]:": 8265,
      "crease": 8266,
      "multimodal": 8267,
      "amba": 8268,
      "Ġtempfile": 8269,
      "library": 8270,
      "Ġmodifi": 8271,
      "Ġtemplates": 8272,
      "limited": 8273,
      "Ġarbitrary": 8274,
      "Quantize": 8275,
      "Apply": 8276,
      "operations": 8277,
      "while": 8278,
      "Ġ'.'": 8279,
      "Ġconnect": 8280,
      "Ġbuckets": 8281,
      "åĪĨ": 8282,
      "Ġdifference": 8283,
      "Authentic": 8284,
      "Ġimplemented": 8285,
      "CADE": 8286,
      "[[],": 8287,
      "Ġdecorators": 8288,
      "IMAGE": 8289,
      "Decimal": 8290,
      "ĠIntegration": 8291,
      "Utils": 8292,
      "diagonal": 8293,
      "Ġannotations": 8294,
      "Ġlibrary": 8295,
      "Attributes": 8296,
      "Ġreshaped": 8297,
      "Ġtruncated": 8298,
      "PYTHON": 8299,
      "neighbor": 8300,
      "momentum": 8301,
      "thinking": 8302,
      "orizontal": 8303,
      "æ¡Ĩ": 8304,
      "!\"": 8305,
      ">,": 8306,
      "AV": 8307,
      "CU": 8308,
      "Fetcher": 8309,
      "Missing": 8310,
      "New": 8311,
      "NONE": 8312,
      "TASK": 8313,
      "VENT": 8314,
      "ba": 8315,
      "bg": 8316,
      "brow": 8317,
      "border": 8318,
      "eder": 8319,
      "eager": 8320,
      "got": 8321,
      "hance": 8322,
      "oss": 8323,
      "qconfig": 8324,
      "xpu": 8325,
      "yolo": 8326,
      "éĢ": 8327,
      "Ġeta": 8328,
      "inverse": 8329,
      "reas": 8330,
      "rees": 8331,
      "reward": 8332,
      "ences": 8333,
      "Ġtb": 8334,
      "arrange": 8335,
      "Ġcpp": 8336,
      "ĠSQL": 8337,
      "ceeded": 8338,
      "Ġplayer": 8339,
      "Ġpayment": 8340,
      "gemm": 8341,
      "Ġodd": 8342,
      "uest": 8343,
      "losses": 8344,
      "Ġblob": 8345,
      "Ġaffine": 8346,
      "LENG": 8347,
      "maker": 8348,
      "upscale": 8349,
      "coverage": 8350,
      "riend": 8351,
      "Ġconsistent": 8352,
      "argsort": 8353,
      "Ġrtol": 8354,
      "Ġ{',": 8355,
      "__\"):": 8356,
      "Ġhop": 8357,
      "addresses": 8358,
      "preprocess": 8359,
      "Ġprogress": 8360,
      "numref": 8361,
      "ĠDim": 8362,
      "Ġcov": 8363,
      "ĠĠĠĠĠĠĠĠĠĠĠĠĠĠĠĠĠĠĠĠĠĠĠĠĠĠĠĠĠĠĠĠĠĠĠĠĠĠĠ": 8364,
      "calcul": 8365,
      "ĠNULL": 8366,
      "phas": 8367,
      "Ġuni": 8368,
      "Ġunpack": 8369,
      "Ġuniform": 8370,
      "login": 8371,
      "ĠWork": 8372,
      "Ġstarting": 8373,
      "Ġsyntax": 8374,
      "widths": 8375,
      "Ġspans": 8376,
      "interpolation": 8377,
      "refresh": 8378,
      "Ġoperand": 8379,
      "creasing": 8380,
      "multimask": 8381,
      "Unit": 8382,
      "SIG": 8383,
      "sqlite": 8384,
      "generation": 8385,
      "Ġworkers": 8386,
      "DICT": 8387,
      "ĠState": 8388,
      "Detection": 8389,
      "Network": 8390,
      "parsers": 8391,
      "POINT": 8392,
      "MOD": 8393,
      "customer": 8394,
      "Ġfailures": 8395,
      "Ġdepends": 8396,
      "flop": 8397,
      "clause": 8398,
      "stricted": 8399,
      "issues": 8400,
      "Ġanalysis": 8401,
      "analytic": 8402,
      "Builds": 8403,
      "Ġdummy": 8404,
      "FOUND": 8405,
      "Ġadapter": 8406,
      "Stats": 8407,
      "Ġbuiltins": 8408,
      "tific": 8409,
      "ĠDecimal": 8410,
      "lertRule": 8411,
      "Ġagainst": 8412,
      "JitScalarType": 8413,
      "LENGTH": 8414,
      "!\")": 8415,
      "*(": 8416,
      "72": 8417,
      "94": 8418,
      "BLE": 8419,
      "FUN": 8420,
      "Feed": 8421,
      "Has": 8422,
      "IST": 8423,
      "MULTI": 8424,
      "NC": 8425,
      "]\"": 8426,
      "bum": 8427,
      "faces": 8428,
      "frequency": 8429,
      "gl": 8430,
      "mos": 8431,
      "player": 8432,
      "spark": 8433,
      "uc": 8434,
      "uv": 8435,
      "vpc": 8436,
      "wp": 8437,
      "wheel": 8438,
      "åĨ": 8439,
      "åĬ": 8440,
      "ç®": 8441,
      "remo": 8442,
      "deri": 8443,
      "erce": 8444,
      "Ġten": 8445,
      "alloc": 8446,
      "Ġ\"*": 8447,
      "Ġclock": 8448,
      "Ġinfer": 8449,
      "rological": 8450,
      "Ġderi": 8451,
      "Ġdependency": 8452,
      "igen": 8453,
      "ads": 8454,
      "Ġ))": 8455,
      "ilation": 8456,
      "isfile": 8457,
      "Ġ'\"": 8458,
      "lause": 8459,
      "ĠALL": 8460,
      "vie": 8461,
      "quad": 8462,
      "(\"<": 8463,
      "Ġgc": 8464,
      "Ġxml": 8465,
      "ĠFloat": 8466,
      "Construct": 8467,
      "Ġexchange": 8468,
      "Ġvae": 8469,
      "Ġ:],": 8470,
      "Ġnumeric": 8471,
      "('<": 8472,
      "Ġmodeling": 8473,
      "ĠMust": 8474,
      "dings": 8475,
      "')]": 8476,
      "Ġconfigured": 8477,
      "coming": 8478,
      "Stri": 8479,
      "Reason": 8480,
      "ĠEl": 8481,
      "testing": 8482,
      "Ġgrads": 8483,
      "ught": 8484,
      "Profile": 8485,
      "Ġqs": 8486,
      "AGES": 8487,
      "Ġcreating": 8488,
      "absolute": 8489,
      "Training": 8490,
      ",)`,": 8491,
      "Ġmodify": 8492,
      "Ġincludes": 8493,
      "ParallelMode": 8494,
      "Ġprobabilities": 8495,
      "finished": 8496,
      "æł¼": 8497,
      "VALUE": 8498,
      "ĠTrain": 8499,
      "Active": 8500,
      "adapter": 8501,
      "driver": 8502,
      "âĶĢ": 8503,
      "slices": 8504,
      "existing": 8505,
      "jpg": 8506,
      "Ġspecifying": 8507,
      "surrogate": 8508,
      "sensitive": 8509,
      "Ġcriterion": 8510,
      "ĠDefined": 8511,
      "TuningConfig": 8512,
      "07": 8513,
      "77": 8514,
      "Actor": 8515,
      "BIT": 8516,
      "GU": 8517,
      "Historical": 8518,
      "MAR": 8519,
      "bwd": 8520,
      "crow": 8521,
      "fa": 8522,
      "fiscal": 8523,
      "ices": 8524,
      "ident": 8525,
      "uck": 8526,
      "æİ": 8527,
      "Ġ(),": 8528,
      "selection": 8529,
      "erance": 8530,
      "aliases": 8531,
      "anim": 8532,
      "Ġcr": 8533,
      "Ġfan": 8534,
      "pes": 8535,
      "urse": 8536,
      "urtle": 8537,
      "Ġdecl": 8538,
      "Ġsk": 8539,
      "Ġsources": 8540,
      "Ġsimp": 8541,
      "Ġsandbox": 8542,
      "Ġspeaker": 8543,
      "Ġmobj": 8544,
      "Ġdefine": 8545,
      "umb": 8546,
      "Ġll": 8547,
      "putln": 8548,
      "Ġ([": 8549,
      "Ġwidget": 8550,
      "adjust": 8551,
      "getter": 8552,
      "Ġnotification": 8553,
      "Ġgu": 8554,
      "Ġhuman": 8555,
      "Ġseg": 8556,
      "scan": 8557,
      "Ġintegr": 8558,
      "omt": 8559,
      "=\"{": 8560,
      "ĠRandom": 8561,
      "Conn": 8562,
      "iful": 8563,
      "ube": 8564,
      "formance": 8565,
      "outs": 8566,
      "('.": 8567,
      "ĠOne": 8568,
      "ipv": 8569,
      "Ġpret": 8570,
      "Ġkeywords": 8571,
      "Ġoutside": 8572,
      "Install": 8573,
      "Instruction": 8574,
      "ĠNested": 8575,
      "INST": 8576,
      "fns": 8577,
      "Ġrouting": 8578,
      "transfer": 8579,
      "BaseOperator": 8580,
      "Ġchecked": 8581,
      "Ġappropri": 8582,
      "Ġshuffle": 8583,
      "funcs": 8584,
      "ENET": 8585,
      "ĠXCom": 8586,
      "Ġbackground": 8587,
      "AGENET": 8588,
      "primary": 8589,
      "Change": 8590,
      "organizations": 8591,
      "Ġmerges": 8592,
      "flattened": 8593,
      "Runtime": 8594,
      "ColumnParallelLinear": 8595,
      "Ġdownstream": 8596,
      "Ġextended": 8597,
      "Ġcommands": 8598,
      "spectrogram": 8599,
      "ĠGenerator": 8600,
      "webhook": 8601,
      "fragment": 8602,
      "buckets": 8603,
      "SERVE": 8604,
      "æłĳ": 8605,
      "Ġestimate": 8606,
      "Ġexpressions": 8607,
      "Ġunderlying": 8608,
      "kwarg": 8609,
      "autiful": 8610,
      "Member": 8611,
      "Evaluator": 8612,
      "AndMul": 8613,
      "Ġadaptive": 8614,
      "permissions": 8615,
      "Ġseealso": 8616,
      "Ġexactly": 8617,
      "slide": 8618,
      "mni": 8619,
      "jacency": 8620,
      "combined": 8621,
      "Ġcumulative": 8622,
      "Ġdenominator": 8623,
      "CONDRegular": 8624,
      "ĠIMAGENET": 8625,
      "lossalai": 8626,
      "ĠHelper": 8627,
      "CausalLM": 8628,
      "Ġobtained": 8629,
      "ĠGemmTuningConfig": 8630,
      "ç®Ĺ": 8631,
      "65": 8632,
      "=.": 8633,
      "GPU": 8634,
      "IDEN": 8635,
      "Implemented": 8636,
      "Kernel": 8637,
      "Last": 8638,
      "Make": 8639,
      "MLError": 8640,
      "PONSE": 8641,
      "SY": 8642,
      "SING": 8643,
      "Socket": 8644,
      "Ver": 8645,
      "WI": 8646,
      "cred": 8647,
      "cwd": 8648,
      "pg": 8649,
      "sat": 8650,
      "ylabel": 8651,
      "æ³": 8652,
      "ç¬": 8653,
      "ç½": 8654,
      "Ġke": 8655,
      "inel": 8656,
      "erger": 8657,
      "aring": 8658,
      "Ġ\"'": 8659,
      "Ġ\"\"))": 8660,
      "Ġcmake": 8661,
      "Ġfactors": 8662,
      "Ġreserved": 8663,
      "Ġreferences": 8664,
      "heter": 8665,
      "ctype": 8666,
      "Ġpat": 8667,
      "Ġsimilar": 8668,
      "challenge": 8669,
      "chinese": 8670,
      "uni": 8671,
      "universe": 8672,
      "olation": 8673,
      "ulated": 8674,
      "magn": 8675,
      "isk": 8676,
      "Ġ'*": 8677,
      "lax": 8678,
      "(\"'": 8679,
      "Ġgain": 8680,
      "__}": 8681,
      "__',": 8682,
      "keypatch": 8683,
      "ĠFI": 8684,
      "ĠFeature": 8685,
      "Conversation": 8686,
      "])]": 8687,
      "inity": 8688,
      "Ġproxies": 8689,
      "Tensors": 8690,
      "ĠPa": 8691,
      "gradients": 8692,
      "Export": 8693,
      "berg": 8694,
      "bert": 8695,
      "Ġalert": 8696,
      "([(": 8697,
      "Ġsafety": 8698,
      "built": 8699,
      "Ġsubmodule": 8700,
      "Ġactiv": 8701,
      "cluding": 8702,
      "[:,:,": 8703,
      "Ġtranslated": 8704,
      "ĠSelf": 8705,
      "ĠDeep": 8706,
      "median": 8707,
      "general": 8708,
      "Env": 8709,
      "ĠDataType": 8710,
      "Orig": 8711,
      "Ġcustomer": 8712,
      "ĠNodes": 8713,
      "Ġbounds": 8714,
      "Ġfails": 8715,
      "epochs": 8716,
      "Desc": 8717,
      "packages": 8718,
      "ISSU": 8719,
      "Subject": 8720,
      "åı¯": 8721,
      "SOURCE": 8722,
      "encrypted": 8723,
      "Ġincluded": 8724,
      "ntaxError": 8725,
      "constructor": 8726,
      "Ġbehaviour": 8727,
      "Ġrewards": 8728,
      "authenticated": 8729,
      "remaining": 8730,
      "Ġarticle": 8731,
      "ĠRESPONSE": 8732,
      "CASCADE": 8733,
      "magnitude": 8734,
      ")-": 8735,
      ".+": 8736,
      "300": 8737,
      "45": 8738,
      "Bert": 8739,
      "CUDA": 8740,
      "Empty": 8741,
      "II": 8742,
      "Next": 8743,
      "Plugin": 8744,
      "RUN": 8745,
      "Sig": 8746,
      "Sparse": 8747,
      "SDP": 8748,
      "cg": 8749,
      "dataloader": 8750,
      "fan": 8751,
      "kit": 8752,
      "liding": 8753,
      "sical": 8754,
      "wt": 8755,
      "æµ": 8756,
      "ðŁ": 8757,
      "Ġvert": 8758,
      "ĴĮ": 8759,
      "inc": 8760,
      "decess": 8761,
      "determin": 8762,
      "dependent": 8763,
      "erarch": 8764,
      "Ġtgt": 8765,
      "along": 8766,
      "ante": 8767,
      "Ġcx": 8768,
      "Ġcert": 8769,
      "Ġcwd": 8770,
      "Ġfully": 8771,
      "mes": 8772,
      "ĠSum": 8773,
      "ĠSym": 8774,
      "Ġprom": 8775,
      "Ġpdf": 8776,
      "Ġslow": 8777,
      "locs": 8778,
      "exe": 8779,
      "ORS": 8780,
      "ckpt": 8781,
      "poss": 8782,
      "Ġrating": 8783,
      "Ġgast": 8784,
      "paragraph": 8785,
      "ages": 8786,
      "Ġ23": 8787,
      "teams": 8788,
      "timescale": 8789,
      "ĠOP": 8790,
      "tracker": 8791,
      "mini": 8792,
      "Ġondelete": 8793,
      "dirty": 8794,
      "Ġminor": 8795,
      "ĠEd": 8796,
      "((-": 8797,
      "Prod": 8798,
      "Ġperformed": 8799,
      "aky": 8800,
      "dential": 8801,
      "SELECT": 8802,
      "Ġupd": 8803,
      "Ġupsample": 8804,
      "Namespace": 8805,
      "charset": 8806,
      "Ġseqlen": 8807,
      "changes": 8808,
      "versal": 8809,
      "Ġvertices": 8810,
      "ĠYou": 8811,
      "Bucket": 8812,
      "MEAN": 8813,
      "Author": 8814,
      "Ġcloud": 8815,
      "ä»¥": 8816,
      "protocol": 8817,
      "CTIONS": 8818,
      "ĠConfiguration": 8819,
      "Report": 8820,
      "}}}": 8821,
      "Hello": 8822,
      "ĠAsyncMock": 8823,
      "Ġscen": 8824,
      "Ġsqrt": 8825,
      "ĠDomain": 8826,
      "ĠIPv": 8827,
      "drive": 8828,
      "Ġelems": 8829,
      "AUTH": 8830,
      "acobian": 8831,
      "ĠObject": 8832,
      "ĠMetric": 8833,
      "likelihood": 8834,
      "HGNetV": 8835,
      "224": 8836,
      "<!": 8837,
      "?\",": 8838,
      "Amounts": 8839,
      "BB": 8840,
      "EQ": 8841,
      "MagicMock": 8842,
      "NULL": 8843,
      "OCR": 8844,
      "Router": 8845,
      "]}\"": 8846,
      "]`,": 8847,
      "]`.": 8848,
      "lb": 8849,
      "maries": 8850,
      "ough": 8851,
      "squared": 8852,
      "uces": 8853,
      "xlabel": 8854,
      "å·": 8855,
      "Ġer": 8856,
      "ons": 8857,
      "atives": 8858,
      "strength": 8859,
      "les": 8860,
      "Ġcel": 8861,
      "Ġcipher": 8862,
      "Ġfold": 8863,
      "heet": 8864,
      "Ġnms": 8865,
      "rounding": 8866,
      "Ġphase": 8867,
      "Ġbm": 8868,
      "ummy": 8869,
      "Ġ(*": 8870,
      "uling": 8871,
      "Ġdat": 8872,
      "cookies": 8873,
      "Ġtogether": 8874,
      "ĠTokens": 8875,
      "\")),": 8876,
      "virtual": 8877,
      "Ġdigits": 8878,
      "icubic": 8879,
      "pret": 8880,
      "Ġmembers": 8881,
      "take": 8882,
      "artist": 8883,
      "Ġasynchronous": 8884,
      "('%": 8885,
      "foot": 8886,
      "more": 8887,
      "INF": 8888,
      "States": 8889,
      "Reader": 8890,
      "logit": 8891,
      "Ġtimesteps": 8892,
      "expansion": 8893,
      "ropic": 8894,
      "ĠcurrentNode": 8895,
      "ĠExtract": 8896,
      "DataConfig": 8897,
      "ĠVllm": 8898,
      "titles": 8899,
      "eye": 8900,
      "Ġtrainer": 8901,
      "Ġprocessors": 8902,
      "Ġatol": 8903,
      "ConvLayer": 8904,
      "filenames": 8905,
      "ĠĠĠĠĠĠĠĠĠĠĠĠĠĠĠĠĠĠĠĠĠĠĠĠĠĠĠĠĠĠĠĠĠ": 8906,
      "LUG": 8907,
      "ĠJob": 8908,
      "locale": 8909,
      "ĠĠĠĠĠĠĠĠĠĠĠĠĠĠĠĠĠĠĠĠĠĠĠĠĠĠĠĠĠĠĠĠĠĠĠĠĠĠĠĠĠĠĠ": 8910,
      "Ġprompts": 8911,
      "discount": 8912,
      "poll": 8913,
      "visibility": 8914,
      "Ġhashlib": 8915,
      "Ġstreaming": 8916,
      "Ġcasting": 8917,
      "Ġsegmentation": 8918,
      "respond": 8919,
      "Ġ\"{}": 8920,
      "ĠCompute": 8921,
      "Ġcomputes": 8922,
      "Ġ\"/\"": 8923,
      "Ġexceptions": 8924,
      "ifications": 8925,
      "ĠColumnParallelLinear": 8926,
      "secondary": 8927,
      "lexible": 8928,
      "Ġabove": 8929,
      "Allow": 8930,
      "separated": 8931,
      "Ġperiods": 8932,
      "STRING": 8933,
      "ĠRpcUser": 8934,
      "Ġemit": 8935,
      "Ġrepeats": 8936,
      "equation": 8937,
      "equals": 8938,
      "Ġdeepcopy": 8939,
      "pieces": 8940,
      "fqn": 8941,
      "ĠBuild": 8942,
      "ĠStopIteration": 8943,
      "ĠRateLimit": 8944,
      "browse": 8945,
      "'^": 8946,
      ")})": 8947,
      "+\",": 8948,
      "2000": 8949,
      "57": 8950,
      ":].": 8951,
      "BACK": 8952,
      "CLIP": 8953,
      "Div": 8954,
      "Import": 8955,
      "NA": 8956,
      "Pol": 8957,
      "Public": 8958,
      "RGB": 8959,
      "cmake": 8960,
      "ema": 8961,
      "gg": 8962,
      "jnp": 8963,
      "jira": 8964,
      "oom": 8965,
      "pend": 8966,
      "sz": 8967,
      "transport": 8968,
      "uge": 8969,
      "vl": 8970,
      "Ġ]:": 8971,
      "inline": 8972,
      "rev": 8973,
      "Ġcnt": 8974,
      "Ġfd": 8975,
      "Ġrecall": 8976,
      "itable": 8977,
      "Ġnf": 8978,
      "ĠSilu": 8979,
      "ĠStep": 8980,
      "Ġspa": 8981,
      "Ġmt": 8982,
      "Ġmight": 8983,
      "\",)": 8984,
      "Ġ_:": 8985,
      "Ġ')": 8986,
      "Ġ192": 8987,
      "quantiles": 8988,
      "))[": 8989,
      "setattr": 8990,
      "datapipe": 8991,
      "initialize": 8992,
      "gradio": 8993,
      "Ġmaxlen": 8994,
      "scriminator": 8995,
      "Ġenforce": 8996,
      "colors": 8997,
      "Ġ384": 8998,
      "Inference": 8999,
      "ĠNew": 9000,
      "Ġleaf": 9001,
      "ibilities": 9002,
      "shutdown": 9003,
      "Ġfilled": 9004,
      "Ġsubscription": 9005,
      "Ġshifted": 9006,
      "Ġlogit": 9007,
      "ĠConstant": 9008,
      "ĠContainer": 9009,
      "Ġpaper": 9010,
      "Ġtranslation": 9011,
      "creator": 9012,
      "LOAD": 9013,
      "olesky": 9014,
      "Ġspecification": 9015,
      "Comfy": 9016,
      "Ġserve": 9017,
      "depthwise": 9018,
      "evaluate": 9019,
      "Ġlimited": 9020,
      "cases": 9021,
      "embd": 9022,
      "naive": 9023,
      "Ġ96": 9024,
      "bounds": 9025,
      "SUF": 9026,
      "Ġhighlight": 9027,
      "ĠComputes": 9028,
      "Ġaggregate": 9029,
      "Description": 9030,
      "LAY": 9031,
      "Ġ\"<|": 9032,
      "Ġsmaller": 9033,
      "Ġoptimized": 9034,
      "Replic": 9035,
      "predictor": 9036,
      "Ġarchitecture": 9037,
      "Ġpruning": 9038,
      "Ġretries": 9039,
      "NOWN": 9040,
      "Ġrecv": 9041,
      "Ġshares": 9042,
      "IntegerField": 9043,
      "Deployment": 9044,
      "ĠDeployment": 9045,
      "ĠOrderedSet": 9046,
      "Ġinstructions": 9047,
      "}-[": 9048,
      "ersonation": 9049,
      "ĠBaseModelOutputWithPooling": 9050,
      "forbid": 9051,
      "ĠMergedColumnParallelLinear": 9052,
      "riendly": 9053,
      "Ġappropriate": 9054,
      "112": 9055,
      "180": 9056,
      "27": 9057,
      "66": 9058,
      "Basic": 9059,
      "Case": 9060,
      "CES": 9061,
      "CLI": 9062,
      "DAG": 9063,
      "DING": 9064,
      "DOT": 9065,
      "Identifier": 9066,
      "KER": 9067,
      "Remove": 9068,
      "SK": 9069,
      "[]}": 9070,
      "bing": 9071,
      "sol": 9072,
      "tur": 9073,
      "uz": 9074,
      "uch": 9075,
      "was": 9076,
      "whisper": 9077,
      "xl": 9078,
      "±»": 9079,
      "åİ": 9080,
      "å¦Ĥ": 9081,
      "æ¯": 9082,
      "ç±»": 9083,
      "Ġattach": 9084,
      "Ġtab": 9085,
      "arily": 9086,
      "Ġrelevant": 9087,
      "Ġnb": 9088,
      "Ġnccl": 9089,
      "Ġnxt": 9090,
      "ĠSDK": 9091,
      "Ġpot": 9092,
      "Ġpod": 9093,
      "Ġmilliseconds": 9094,
      "Ġbatches": 9095,
      "unbind": 9096,
      "exclusive": 9097,
      "Ġlp": 9098,
      "Ġ(_": 9099,
      "ilenet": 9100,
      "ĠTorch": 9101,
      "ĠACT": 9102,
      "via": 9103,
      "endpoints": 9104,
      "__[": 9105,
      "Ġsec": 9106,
      "ppers": 9107,
      "persist": 9108,
      "Ġecho": 9109,
      "dataclass": 9110,
      "ĠPatch": 9111,
      "ĠCloud": 9112,
      "oute": 9113,
      "ĠMatch": 9114,
      "Ġpreprocessing": 9115,
      "obilenet": 9116,
      "aggreg": 9117,
      "Ġjava": 9118,
      "filt": 9119,
      "Ġunsupported": 9120,
      "capi": 9121,
      "ĠUses": 9122,
      "ĠGlobal": 9123,
      "companies": 9124,
      "pache": 9125,
      "trainer": 9126,
      "modes": 9127,
      "Ġbudget": 9128,
      "readlines": 9129,
      "interpolate": 9130,
      "Ġpaddings": 9131,
      "ĠVi": 9132,
      "ĠVision": 9133,
      "coring": 9134,
      "SES": 9135,
      "Ġzone": 9136,
      "mitive": 9137,
      "prime": 9138,
      "Ġentire": 9139,
      "ĠĠĠĠĠĠĠĠĠĠĠĠĠĠĠĠĠĠĠĠĠĠĠĠĠĠĠĠĠĠĠĠĠĠ": 9140,
      "ĠĠĠĠĠĠĠĠĠĠĠĠĠĠĠĠĠĠĠĠĠĠĠĠĠĠĠĠĠĠĠĠĠĠĠĠĠĠ": 9141,
      "ĠJson": 9142,
      ":`~": 9143,
      "postprocess": 9144,
      "postgres": 9145,
      "Ġadding": 9146,
      "Ġmoving": 9147,
      "ĠStack": 9148,
      "MPT": 9149,
      "versations": 9150,
      "Timeout": 9151,
      "Ġrenderable": 9152,
      "SUC": 9153,
      "SUM": 9154,
      "Ġreplay": 9155,
      "EXT": 9156,
      "ĠEngine": 9157,
      "Ġcorresponds": 9158,
      "Ġabstract": 9159,
      "Ġfraction": 9160,
      "Iterable": 9161,
      "Ġclipped": 9162,
      "Ġperformance": 9163,
      "ENDING": 9164,
      "Ġtruncation": 9165,
      "Credentials": 9166,
      "Available": 9167,
      "ChatCompletion": 9168,
      "ĠNVMLError": 9169,
      "ĠBinary": 9170,
      "Ġgood": 9171,
      "æĪĲ": 9172,
      "Ġduplicate": 9173,
      "cognition": 9174,
      "ĠBoolean": 9175,
      "Secret": 9176,
      "Ġbidirectional": 9177,
      "denoised": 9178,
      "MODULE": 9179,
      "ĠEdge": 9180,
      "+\"": 9181,
      ".)": 9182,
      "AA": 9183,
      "Abstract": 9184,
      "CUR": 9185,
      "Del": 9186,
      "Doc": 9187,
      "EW": 9188,
      "ForeignKey": 9189,
      "ILD": 9190,
      "Location": 9191,
      "Msg": 9192,
      "Mapper": 9193,
      "Omni": 9194,
      "WE": 9195,
      "cb": 9196,
      "fm": 9197,
      "nl": 9198,
      "sf": 9199,
      "tran": 9200,
      "ucli": 9201,
      "åĴĮ": 9202,
      "inct": 9203,
      "revision": 9204,
      "secut": 9205,
      "secrets": 9206,
      "deps": 9207,
      "deleted": 9208,
      "Ġturn": 9209,
      "alarm": 9210,
      "anti": 9211,
      "Ġfall": 9212,
      "ury": 9213,
      "ĠSU": 9214,
      "ĠSa": 9215,
      "Ġpg": 9216,
      "Ġdeleted": 9217,
      "Ġspect": 9218,
      "Ġmag": 9219,
      "rad": 9220,
      "unused": 9221,
      "()])": 9222,
      "()}\"": 9223,
      "ORG": 9224,
      "Ġdue": 9225,
      "Ġdays": 9226,
      "coales": 9227,
      "Ġconsider": 9228,
      "aming": 9229,
      "endor": 9230,
      "Ġgrowth": 9231,
      "Ġhyp": 9232,
      "ĠFixed": 9233,
      "))))": 9234,
      "Ġys": 9235,
      "ĠDrop": 9236,
      "('_": 9237,
      "Ġprec": 9238,
      "tracing": 9239,
      "irt": 9240,
      "grouping": 9241,
      "scaler": 9242,
      "mba": 9243,
      "checksum": 9244,
      "Ġgrouping": 9245,
      "ĠIndices": 9246,
      "Database": 9247,
      "intersection": 9248,
      "interleave": 9249,
      "ĠVersion": 9250,
      "Ġsampled": 9251,
      "Ġmodes": 9252,
      "penalty": 9253,
      "nets": 9254,
      "areas": 9255,
      "Ġupgrade": 9256,
      "Ġentities": 9257,
      "Ġtemporary": 9258,
      "Ġoverwrite": 9259,
      "ENTAL": 9260,
      "Ġcopied": 9261,
      "white": 9262,
      "EXPER": 9263,
      "blue": 9264,
      "Ġrecords": 9265,
      "merged": 9266,
      "Execute": 9267,
      "share": 9268,
      "Ġlatents": 9269,
      "cosine": 9270,
      "symbols": 9271,
      "SERVER": 9272,
      "ĠFileNotFoundError": 9273,
      "Ġdirectories": 9274,
      "Ġseparators": 9275,
      "ffffffff": 9276,
      "optimize": 9277,
      "ACTIVE": 9278,
      "shortcut": 9279,
      "Pipe": 9280,
      "WORD": 9281,
      "bundles": 9282,
      "Gradient": 9283,
      "discard": 9284,
      "characters": 9285,
      "æī¾": 9286,
      "uggingface": 9287,
      "Choice": 9288,
      "ĠSigma": 9289,
      "åŃĹ": 9290,
      "Aggreg": 9291,
      "Curve": 9292,
      "lava": 9293,
      "LOCAL": 9294,
      "DELETE": 9295,
      "avorite": 9296,
      "ĠSiluAndMul": 9297,
      "\"/": 9298,
      ")|": 9299,
      ")[-": 9300,
      ",-": 9301,
      "49": 9302,
      "59": 9303,
      "88": 9304,
      "=\",": 9305,
      "Chain": 9306,
      "Copy": 9307,
      "FE": 9308,
      "FR": 9309,
      "IF": 9310,
      "Ids": 9311,
      "Kind": 9312,
      "Lab": 9313,
      "PAGE": 9314,
      "Sent": 9315,
      "Shear": 9316,
      "\\'": 9317,
      "cis": 9318,
      "city": 9319,
      "cnn": 9320,
      "dx": 9321,
      "django": 9322,
      "einsum": 9323,
      "oU": 9324,
      "pod": 9325,
      "prun": 9326,
      "rn": 9327,
      "rst": 9328,
      "è½": 9329,
      "Ġutil": 9330,
      "ony": 9331,
      "ongs": 9332,
      "dean": 9333,
      "Ġtreat": 9334,
      "arante": 9335,
      "Ġfact": 9336,
      "met": 9337,
      "Ġrecomm": 9338,
      "Ġrearrange": 9339,
      "hest": 9340,
      "urations": 9341,
      "ĠSpan": 9342,
      "Ġpx": 9343,
      "Ġscoring": 9344,
      "associ": 9345,
      "chn": 9346,
      "chan": 9347,
      "Ġbind": 9348,
      "ighest": 9349,
      "Ġreturning": 9350,
      "Ġaux": 9351,
      "amel": 9352,
      "izz": 9353,
      "Ġls": 9354,
      "oto": 9355,
      "Ġdw": 9356,
      "mamba": 9357,
      "have": 9358,
      "ĠTool": 9359,
      "ĠAws": 9360,
      "(\"{": 9361,
      "Ġselector": 9362,
      "Ġstability": 9363,
      "Ġeos": 9364,
      "lict": 9365,
      "lifi": 9366,
      "liers": 9367,
      "ĠRetri": 9368,
      "setting": 9369,
      "])[": 9370,
      "Ġthumbnail": 9371,
      "spacing": 9372,
      "ĠPartition": 9373,
      "clusters": 9374,
      "']),": 9375,
      "Ġfloats": 9376,
      "ĠNon": 9377,
      "Ġquality": 9378,
[...]
